{"version":"1.0","truncation":null,"padding":null,"added_tokens":[{"id":0,"special":true,"content":"[UNK]","single_word":false,"lstrip":false,"rstrip":false,"normalized":false},{"id":1,"special":true,"content":"[CLS]","single_word":false,"lstrip":false,"rstrip":false,"normalized":false},{"id":2,"special":true,"content":"[SEP]","single_word":false,"lstrip":false,"rstrip":false,"normalized":false},{"id":3,"special":true,"content":"[PAD]","single_word":false,"lstrip":false,"rstrip":false,"normalized":false},{"id":4,"special":true,"content":"[MASK]","single_word":false,"lstrip":false,"rstrip":false,"normalized":false}],"normalizer":null,"pre_tokenizer":{"type":"Whitespace"},"post_processor":null,"decoder":null,"model":{"dropout":null,"unk_token":null,"continuing_subword_prefix":null,"end_of_word_suffix":null,"fuse_unk":false,"vocab":{"[UNK]":0,"[CLS]":1,"[SEP]":2,"[PAD]":3,"[MASK]":4,"!":5,"#":6,"$":7,"%":8,"&":9,"'":10,"(":11,")":12,"*":13,"+":14,",":15,"-":16,".":17,"/":18,"0":19,"1":20,"2":21,"3":22,"4":23,"5":24,"6":25,"7":26,"8":27,"9":28,":":29,";":30,"<":31,"=":32,">":33,"?":34,"@":35,"L":36,"R":37,"U":38,"[":39,"\\":40,"]":41,"^":42,"_":43,"a":44,"b":45,"c":46,"d":47,"e":48,"f":49,"g":50,"h":51,"i":52,"j":53,"k":54,"l":55,"m":56,"n":57,"o":58,"p":59,"q":60,"r":61,"s":62,"t":63,"u":64,"v":65,"w":66,"x":67,"y":68,"z":69,"{":70,"|":71,"}":72,"~":73,"¡":74,"´":75,"â":76,"th":77,"in":78,"an":79,"er":80,"to":81,"ou":82,"ing":83,"on":84,"..":85,"re":86,"at":87,"the":88,"it":89,"or":90,"st":91,"ll":92,"me":93,"ha":94,"is":95,"ay":96,"ee":97,"oo":98,"ve":99,"no":100,"you":101,"my":102,"and":103,"le":104,"ar":105,"ed":106,"en":107,"so":108,"ch":109,"day":110,"be":111,"as":112,"es":113,"ho":114,"lo":115,"go":116,"gh":117,"!!":118,"ad":119,"for":120,"of":121,"all":122,"...":123,"li":124,"ck":125,"ut":126,"ro":127,"mo":128,"wi":129,"et":130,"he":131,"al":132,"wh":133,"**":134,"un":135,"that":136,"ti":137,"ri":138,"ke":139,"ght":140,"we":141,"ver":142,"out":143,"do":144,"ther":145,"have":146,"one":147,"ly":148,"se":149,"am":150,"id":151,"ust":152,"co":153,"now":154,"ld":155,"ce":156,"up":157,"but":158,"just":159,"ni":160,"ter":161,"wor":162,"with":163,"ood":164,"pp":165,"ne":166,"can":167,"was":168,"get":169,"not":170,"la":171,"are":172,"ir":173,"ab":174,"ur":175,"ma":176,"some":177,"good":178,"wee":179,"pe":180,"ra":181,"ally":182,"ry":183,"work":184,"im":185,"us":186,"ould":187,"this":188,"ic":189,"end":190,"love":191,"night":192,"de":193,"ere":194,"got":195,"su":196,"ill":197,"like":198,"ba":199,"ant":200,"nt":201,"don":202,"than":203,"too":204,"sh":205,"ye":206,"ks":207,"mor":208,"na":209,"ate":210,"time":211,"thing":212,"RL":213,"URL":214,"how":215,"your":216,"happ":217,"po":218,"see":219,"ag":220,"if":221,"ss":222,"ink":223,"bo":224,"today":225,"haha":226,"iss":227,"fee":228,"te":229,"very":230,"what":231,"ish":232,"ta":233,"going":234,"rom":235,"any":236,"tw":237,"****":238,"way":239,"lol":240,"know":241,"miss":242,"ion":243,"ow":244,"ting":245,"back":246,"fin":247,"fo":248,"happy":249,"ca":250,"....":251,"from":252,"want":253,"ook":254,"fa":255,"ple":256,"new":257,"ning":258,"ong":259,"eep":260,"will":261,"mu":262,"fe":263,"our":264,"its":265,"did":266,"ie":267,"sa":268,"there":269,"ah":270,"feel":271,"fri":272,"really":273,"off":274,"wa":275,"oh":276,"com":277,"art":278,"gu":279,"ex":280,"ers":281,"gre":282,"about":283,"think":284,"week":285,"nd":286,"!!!":287,"had":288,"atch":289,"pl":290,"mother":291,"si":292,"more":293,"home":294,"ain":295,"eed":296,"they":297,"ct":298,"read":299,"??":300,"ent":301,"il":302,"um":303,"well":304,"ough":305,"ite":306,"ww":307,"con":308,"fun":309,"ool":310,"twit":311,"red":312,"row":313,"ving":314,"need":315,"sp":316,"hope":317,"ine":318,"ge":319,"still":320,"when":321,"much":322,"watch":323,"jo":324,"thanks":325,"here":326,"ts":327,"come":328,"ul":329,"ound":330,"mm":331,"twitter":332,"last":333,"every":334,"ess":335,"aa":336,"her":337,"sl":338,"has":339,"great":340,"king":341,"wish":342,"oooo":343,"ard":344,"een":345,"mi":346,"lu":347,"sad":348,"eve":349,"pre":350,"morning":351,"by":352,"qu":353,"pro":354,"would":355,"use":356,"ph":357,"ind":358,"che":359,"she":360,"wn":361,"llow":362,"been":363,"look":364,"sor":365,"friend":366,"then":367,"right":368,"gr":369,"hh":370,"mom":371,"sleep":372,"could":373,"tomor":374,"follow":375,"ide":376,"twee":377,"ous":378,"ig":379,"mon":380,"sun":381,"won":382,"again":383,"tomorrow":384,"wait":385,"ble":386,"!!!!":387,"why":388,"ff":389,"say":390,"bad":391,"only":392,"other":393,"may":394,"sto":395,"af":396,"ty":397,"ation":398,"bet":399,"tonight":400,"sorry":401,"over":402,"ready":403,"man":404,"pa":405,"though":406,"show":407,"xt":408,"should":409,"gon":410,"who":411,"bu":412,"make":413,"di":414,"stu":415,"nice":416,"ok":417,"yeah":418,"rea":419,"per":420,"head":421,"them":422,"ac":423,"gonna":424,"ru":425,"pic":426,"har":427,"der":428,"dy":429,"bed":430,"try":431,"down":432,"ber":433,"rain":434,"better":435,"sch":436,"days":437,"weekend":438,"ive":439,"lea":440,"tle":441,"ci":442,"ment":443,"ster":444,"ys":445,"play":446,"ang":447,"cause":448,"yes":449,"does":450,"ies":451,"getting":452,"after":453,"hi":454,"lf":455,"ase":456,"peo":457,"br":458,"ile":459,"people":460,"star":461,"ass":462,"ps":463,"ny":464,"car":465,"00":466,"hour":467,"vie":468,"app":469,"cks":470,"long":471,"school":472,"awe":473,"tho":474,"yy":475,"next":476,"mothers":477,"tu":478,"where":479,"gl":480,"bab":481,"gir":482,"were":483,"didn":484,"min":485,"part":486,"lit":487,"ms":488,"mad":489,"him":490,"best":491,"watching":492,"ice":493,"awesome":494,"ree":495,"dont":496,"girl":497,"ear":498,"ought":499,"phone":500,"ga":501,"let":502,"bro":503,"ugh":504,"ans":505,"thank":506,"om":507,"fi":508,"kes":509,"ama":510,"hate":511,"sup":512,"call":513,"tal":514,"year":515,"hey":516,"gg":517,"even":518,"sho":519,"list":520,"never":521,"anna":522,"pr":523,"his":524,"ull":525,"soon":526,"most":527,"ick":528,"sc":529,"having":530,"little":531,"tion":532,"ways":533,"aww":534,"cit":535,"dr":536,"du":537,"working":538,"start":539,"sure":540,"age":541,"ater":542,"being":543,"fore":544,"fir":545,"wr":546,"hu":547,"put":548,"live":549,"sick":550,"ft":551,"cou":552,"cool":553,"life":554,"ever":555,"hur":556,"inter":557,"late":558,"take":559,"ouse":560,"ooo":561,"vo":562,"tri":563,"ating":564,"cant":565,"book":566,"ste":567,"cl":568,"done":569,"ach":570,"first":571,"da":572,"mar":573,"tired":574,"everyone":575,"act":576,"self":577,"tweet":578,"cle":579,"feeling":580,"tra":581,"doing":582,"wo":583,"friends":584,"bit":585,"zing":586,"because":587,"brea":588,"find":589,"please":590,"keep":591,"til":592,"joy":593,"cut":594,"ooks":595,"hours":596,"house":597,"ya":598,"movie":599,"always":600,"ful":601,"wanna":602,"yay":603,"another":604,"urn":605,"ser":606,"old":607,"able":608,"friday":609,"already":610,"made":611,"song":612,"guys":613,"zz":614,"full":615,"ner":616,"ort":617,"ream":618,"side":619,"rr":620,"something":621,"big":622,"pret":623,"eeee":624,"dis":625,"luck":626,"thought":627,"clo":628,"bir":629,"war":630,"hell":631,"yet":632,"sit":633,"trying":634,"est":635,"blo":636,"pla":637,"before":638,"hel":639,"guess":640,"ted":641,"ually":642,"into":643,"enjoy":644,"hard":645,"cra":646,"tell":647,"away":648,"ton":649,"pretty":650,"bus":651,"gs":652,"kind":653,"mus":654,"finally":655,"looking":656,"sha":657,"check":658,"fam":659,"lot":660,"roo":661,"same":662,"kid":663,"went":664,"cu":665,"par":666,"hear":667,"maybe":668,"el":669,"run":670,"left":671,"?!":672,"ily":673,"bl":674,"amazing":675,"win":676,"sucks":677,"times":678,"10":679,"ward":680,"while":681,"wow":682,"hot":683,"monday":684,"listen":685,"unch":686,"less":687,"omg":688,"sing":689,"looks":690,"sound":691,"tor":692,"finish":693,"excit":694,"doesn":695,"someone":696,"also":697,"ated":698,"hair":699,"things":700,"tre":701,"help":702,"tr":703,"load":704,"break":705,"give":706,"ious":707,"je":708,"les":709,"those":710,"ding":711,"ance":712,"happen":713,"god":714,"missed":715,"job":716,"dri":717,"sin":718,"ash":719,"world":720,"bored":721,"des":722,"xx":723,"two":724,"pt":725,"said":726,"coming":727,"talk":728,"saw":729,".....":730,"face":731,"boo":732,"spe":733,"low":734,"light":735,"vis":736,"nothing":737,"early":738,"ity":739,"wea":740,"ja":741,"birth":742,"cer":743,"swee":744,"baby":745,"party":746,"actually":747,"later":748,"ank":749,"ten":750,"sk":751,"line":752,"glad":753,"ds":754,"wonder":755,"post":756,"music":757,"dd":758,"ange":759,"30":760,"hun":761,"net":762,"real":763,"stuff":764,"cha":765,"men":766,"game":767,"birthday":768,"pho":769,"set":770,"meet":771,"pen":772,"until":773,"body":774,"mber":775,"pi":776,"such":777,"yester":778,"poor":779,"sat":780,"yesterday":781,"em":782,"ger":783,"bea":784,"bor":785,"around":786,"summ":787,"ise":788,"gone":789,"till":790,"weather":791,"din":792,"turn":793,"stay":794,"cho":795,"lost":796,"far":797,"ii":798,"io":799,"many":800,"oney":801,"makes":802,"wel":803,"since":804,"might":805,"found":806,"must":807,"zy":808,"gotta":809,"thats":810,"excited":811,"cor":812,"ats":813,"mean":814,"myself":815,"fast":816,"cked":817,"wake":818,"aaaa":819,"summer":820,"bla":821,"cr":822,"cry":823,"free":824,"mind":825,"ure":826,"ture":827,"waiting":828,"photo":829,"--":830,"bum":831,"ason":832,"anything":833,"least":834,"class":835,"mess":836,"cold":837,"pping":838,"hahaha":839,"few":840,"count":841,"cof":842,"lunch":843,"top":844,"ast":845,"ates":846,"boy":847,"dad":848,"making":849,"super":850,"family":851,"room":852,"tru":853,"rep":854,"ress":855,"almost":856,"bs":857,"leave":858,"wer":859,"ia":860,"wal":861,"month":862,"sunday":863,"sm":864,"fr":865,"place":866,"aw":867,"eat":868,"fer":869,"rough":870,"coffee":871,"pers":872,"their":873,"beli":874,"clean":875,"sur":876,"tot":877,"under":878,"stop":879,"picture":880,"drink":881,"fav":882,"anyone":883,"gy":884,"ked":885,"mail":886,"buy":887,"fully":888,"beaut":889,"bur":890,"ping":891,"int":892,"whi":893,"soooo":894,"stup":895,"without":896,"tv":897,"wed":898,"cket":899,"name":900,"thinking":901,"plan":902,"hurts":903,"stupid":904,"money":905,"forward":906,"everything":907,"welcome":908,"totally":909,"mine":910,"vide":911,"ones":912,"used":913,"believe":914,"land":915,"isn":916,"funny":917,"sounds":918,"pain":919,"missing":920,"????":921,"cute":922,"video":923,";)":924,"ken":925,"tt":926,"through":927,"add":928,"hehe":929,"food":930,"move":931,"ace":932,"sent":933,"iful":934,"listening":935,"ction":936,"finished":937,"rest":938,"exam":939,"dream":940,"grad":941,"playing":942,"which":943,"ago":944,"ju":945,"kill":946,"comp":947,"dinner":948,"beautiful":949,"gn":950,"sed":951,"ley":952,"ence":953,"haven":954,"wanted":955,"probab":956,"sweet":957,"cy":958,"bb":959,"probably":960,"py":961,"xo":962,"upd":963,"cam":964,"va":965,"med":966,"holi":967,"test":968,"okay":969,"ball":970,"ces":971,"hang":972,"chi":973,"fre":974,"pri":975,"tin":976,"whole":977,"send":978,"arent":979,"ache":980,"hand":981,"ze":982,"followers":983,"au":984,"hit":985,"nor":986,"sy":987,"reme":988,"these":989,"outside":990,"pped":991,"wasn":992,"minut":993,"woke":994,"kids":995,"bar":996,"eating":997,"port":998,"ws":999,"iting":1000,"lle":1001,"ask":1002,"mum":1003,"didnt":1004,"ness":1005,"enough":1006,"seen":1007,"ary":1008,"person":1009,"mer":1010,"uu":1011,"wear":1012,"lovely":1013,"cial":1014,"hor":1015,"mat":1016,"sooo":1017,"oot":1018,"weeks":1019,"wants":1020,"fan":1021,"nn":1022,"arn":1023,"both":1024,"came":1025,"press":1026,"says":1027,"gi":1028,"ls":1029,"pu":1030,"stand":1031,"gra":1032,"took":1033,"ahhh":1034,"???":1035,"ins":1036,"fort":1037,"vers":1038,"high":1039,"else":1040,"fl":1041,"ither":1042,"forgot":1043,"own":1044,"wars":1045,"kinda":1046,"char":1047,"office":1048,"proble":1049,"clu":1050,"cking":1051,"fail":1052,"fect":1053,"remember":1054,"air":1055,"goodnight":1056,"anymore":1057,"years":1058,"awww":1059,"12":1060,"nite":1061,"yum":1062,"ross":1063,"tic":1064,"taking":1065,"gets":1066,"loved":1067,"guy":1068,"wrong":1069,"satur":1070,"care":1071,"jon":1072,"kk":1073,"stuck":1074,"eee":1075,"une":1076,"moms":1077,"following":1078,"internet":1079,"chill":1080,"hopefully":1081,"heart":1082,"als":1083,"saturday":1084,"dif":1085,"fly":1086,"ima":1087,"dec":1088,"ages":1089,"ak":1090,"bank":1091,"catch":1092,"hmm":1093,"mit":1094,"vid":1095,"change":1096,"ticket":1097,"shopping":1098,"hello":1099,"busy":1100,"33":1101,"bi":1102,"cook":1103,"online":1104,"lly":1105,"comput":1106,"qui":1107,"tweets":1108,"lin":1109,"lad":1110,"mid":1111,"dog":1112,"dead":1113,"headache":1114,"raining":1115,"brother":1116,"suppo":1117,"crazy":1118,"bye":1119,"cur":1120,"fall":1121,"lots":1122,"couldn":1123,"20":1124,"band":1125,"cre":1126,"cong":1127,"ep":1128,"sen":1129,"vin":1130,"once":1131,"sign":1132,"sitting":1133,"cuz":1134,"black":1135,"lay":1136,"open":1137,"rs":1138,"seems":1139,"idea":1140,"tube":1141,"broke":1142,"drive":1143,"holiday":1144,"dan":1145,"pm":1146,"spend":1147,"stead":1148,"congr":1149,"son":1150,"stra":1151,"half":1152,"concer":1153,"called":1154,"serious":1155,"card":1156,"suck":1157,"quite":1158,"mommy":1159,"cour":1160,"either":1161,"mp":1162,"alone":1163,"news":1164,"study":1165,"blog":1166,"cess":1167,"town":1168,"sta":1169,"lap":1170,"oooooooo":1171,"trip":1172,"tried":1173,"trek":1174,"sou":1175,"soo":1176,"grand":1177,"talking":1178,"dude":1179,"awake":1180,"pass":1181,"ring":1182,"sw":1183,"twi":1184,"ught":1185,"vi":1186,"ana":1187,"defin":1188,"watched":1189,"view":1190,"cli":1191,"lon":1192,"slow":1193,"rock":1194,"ney":1195,"seeing":1196,"wont":1197,"yyyy":1198,"facebook":1199,"11":1200,"dra":1201,"iphone":1202,"lma":1203,"cell":1204,"ush":1205,"bring":1206,"girls":1207,"scre":1208,"minutes":1209,"cat":1210,"cup":1211,"den":1212,"email":1213,"instead":1214,"heard":1215,"feels":1216,"hung":1217,"true":1218,"gle":1219,"ling":1220,"lor":1221,"mc":1222,"ried":1223,"short":1224,"evening":1225,"ations":1226,"lucky":1227,"goo":1228,"sn":1229,"woo":1230,"ven":1231,"mac":1232,"ately":1233,"!!!!!!!!":1234,"starting":1235,"hurt":1236,"breakfast":1237,"favor":1238,"computer":1239,"btw":1240,"dam":1241,"site":1242,"cover":1243,"www":1244,"city":1245,"interest":1246,"close":1247,"lmao":1248,"pay":1249,"prom":1250,"pick":1251,"yo":1252,"thin":1253,"youtube":1254,"perfect":1255,"flu":1256,"ped":1257,"moment":1258,"key":1259,"ird":1260,"using":1261,"fine":1262,"concert":1263,"kin":1264,"tour":1265,"lax":1266,"loves":1267,"wonderful":1268,"__":1269,"die":1270,"ming":1271,"told":1272,"iso":1273,"chee":1274,"colle":1275,"yea":1276,"ions":1277,"pics":1278,"writing":1279,"burn":1280,"ip":1281,"link":1282,"sty":1283,"beach":1284,"lic":1285,"ute":1286,"sometimes":1287,"pod":1288,"15":1289,"cing":1290,"june":1291,"lt":1292,"led":1293,"goes":1294,"ici":1295,"box":1296,"fair":1297,"reading":1298,"running":1299,"hungry":1300,"ap":1301,"bri":1302,"cal":1303,"eas":1304,"fing":1305,"gard":1306,"tom":1307,"itch":1308,"learn":1309,"sol":1310,"text":1311,"sigh":1312,"bless":1313,"ight":1314,"sim":1315,"uk":1316,"relax":1317,"rible":1318,"****.":1319,"account":1320,"reply":1321,"bought":1322,"ced":1323,"oud":1324,"reason":1325,"str":1326,"!!!!!":1327,"lil":1328,"fortun":1329,"episo":1330,"200":1331,"bra":1332,"cream":1333,"spo":1334,"water":1335,"iness":1336,"unk":1337,"comple":1338,"cted":1339,"shower":1340,"heading":1341,"leaving":1342,"boring":1343,"cti":1344,"gar":1345,"pan":1346,"secon":1347,"sub":1348,"fix":1349,"windo":1350,"choco":1351,"problem":1352,"differ":1353,"ko":1354,"doc":1355,"mach":1356,"cake":1357,"months":1358,"definite":1359,"favorite":1360,"bout":1361,"dou":1362,"zed":1363,"noon":1364,"hoping":1365,"cast":1366,"needs":1367,"quest":1368,"started":1369,"gradu":1370,"definitely":1371,"ath":1372,"bby":1373,"frea":1374,"unfortun":1375,"rist":1376,"word":1377,"anyway":1378,"space":1379,"sleeping":1380,"happened":1381,"course":1382,"100":1383,"gif":1384,"ines":1385,"ared":1386,"dro":1387,"gas":1388,"mr":1389,"smi":1390,"reci":1391,"engl":1392,"season":1393,"near":1394,"join":1395,"hhhh":1396,"berry":1397,"due":1398,"songs":1399,"walk":1400,"4th":1401,"fil":1402,"mas":1403,"ual":1404,"vies":1405,"ved":1406,"sore":1407,"goin":1408,"laugh":1409,"tea":1410,"comes":1411,"sunny":1412,"figu":1413,"supposed":1414,"ipod":1415,"sid":1416,"enter":1417,"nap":1418,"tain":1419,"ahh":1420,"write":1421,"couple":1422,"blu":1423,"dress":1424,"gen":1425,"ian":1426,"parent":1427,"arch":1428,"shir":1429,"present":1430,"download":1431,"ments":1432,"appo":1433,"meeting":1434,"tickets":1435,"chocolate":1436,"gt":1437,"movies":1438,"web":1439,"worth":1440,"dear":1441,"died":1442,"reali":1443,"vote":1444,"jeal":1445,"seriously":1446,"40":1447,"cus":1448,"cent":1449,"dang":1450,"eyes":1451,"gic":1452,"num":1453,"xd":1454,"era":1455,"ren":1456,"ves":1457,"esday":1458,"final":1459,"sadly":1460,"gave":1461,"shop":1462,"jealous":1463,"ali":1464,"ue":1465,"chat":1466,"chick":1467,"asl":1468,"tie":1469,"yep":1470,"conf":1471,"saying":1472,"store":1473,"fire":1474,"ject":1475,"xxxx":1476,"jonas":1477,"garden":1478,"ible":1479,"ition":1480,"ries":1481,"amer":1482,"works":1483,"poss":1484,"gether":1485,"hugs":1486,"pizz":1487,"cleaning":1488,"asleep":1489,"mood":1490,"mil":1491,"wt":1492,"ina":1493,"moving":1494,"cele":1495,"cept":1496,"shine":1497,"bot":1498,"board":1499,"boys":1500,"........":1501,"past":1502,"broken":1503,"special":1504,"google":1505,"dar":1506,"fb":1507,"nat":1508,"vice":1509,"ane":1510,"together":1511,"revis":1512,"stress":1513,"weird":1514,"aren":1515,"agree":1516,"aaa":1517,"wishing":1518,"complete":1519,"igh":1520,"lar":1521,"ital":1522,"met":1523,"chang":1524,"words":1525,"point":1526,"ils":1527,"afternoon":1528,"answer":1529,"park":1530,"gym":1531,"lady":1532,"london":1533,"1st":1534,"knew":1535,"ris":1536,"rad":1537,"means":1538,"forget":1539,"cos":1540,"deli":1541,"ills":1542,"offici":1543,"sister":1544,"pray":1545,"blood":1546,"driving":1547,"drinking":1548,"interesting":1549,"cheese":1550,"second":1551,"unfortunately":1552,"50":1553,"bat":1554,"ben":1555,"ef":1556,"ng":1557,"op":1558,"ug":1559,"tou":1560,"ouch":1561,"ons":1562,"rent":1563,"nope":1564,"hahahaha":1565,"fell":1566,"cially":1567,"mark":1568,"pictures":1569,"exams":1570,"ka":1571,"mic":1572,"wing":1573,"three":1574,"lent":1575,"absol":1576,"babe":1577,"gest":1578,"bud":1579,"congrats":1580,"screen":1581,"episode":1582,"parents":1583,"date":1584,"gin":1585,"mb":1586,"leg":1587,"chance":1588,"roll":1589,"album":1590,"ppl":1591,"uring":1592,"teach":1593,"green":1594,"ult":1595,"brit":1596,"warm":1597,"surpr":1598,",,":1599,"hoo":1600,"joh":1601,"ki":1602,"mou":1603,"pat":1604,"order":1605,"vel":1606,"lies":1607,"seem":1608,"spent":1609,"ign":1610,"different":1611,"pizza":1612,"fab":1613,"gut":1614,"por":1615,"van":1616,"tha":1617,"tory":1618,"ond":1619,"upload":1620,"ters":1621,"plans":1622,"doesnt":1623,"fight":1624,"wedding":1625,"laptop":1626,"bday":1627,"dun":1628,"kick":1629,"swi":1630,"sal":1631,"tee":1632,"vac":1633,"thro":1634,"ann":1635,"ont":1636,"espe":1637,"ride":1638,"worry":1639,"ica":1640,"appreci":1641,"visit":1642,"wtf":1643,"especially":1644,"fu":1645,"fant":1646,"hind":1647,"mate":1648,"pool":1649,"page":1650,"sam":1651,"train":1652,"wash":1653,"depress":1654,"whats":1655,"save":1656,"plus":1657,"story":1658,"prof":1659,"rrrr":1660,"understand":1661,"pub":1662,"bgt":1663,"foot":1664,"hy":1665,"kn":1666,"kno":1667,"inst":1668,"ars":1669,"hold":1670,"hea":1671,"white":1672,"urs":1673,"pop":1674,"mmmm":1675,"wouldn":1676,"iled":1677,"message":1678,"club":1679,"absolute":1680,"apart":1681,"bas":1682,"dance":1683,"mis":1684,"mal":1685,"rand":1686,"round":1687,"anno":1688,"beer":1689,"uni":1690,"sex":1691,"upset":1692,"ants":1693,"......":1694,"exper":1695,"hhh":1696,"sunshine":1697,"shows":1698,"horrible":1699,".'":1700,"19":1701,"books":1702,"dge":1703,"fm":1704,"remind":1705,"meant":1706,"ised":1707,"ade":1708,"liked":1709,"power":1710,"produ":1711,"apple":1712,"earli":1713,"huge":1714,"shame":1715,"photos":1716,"english":1717,"shirt":1718,"john":1719,"'.":1720,"dv":1721,"each":1722,"fans":1723,"grow":1724,"hum":1725,"ob":1726,"sle":1727,"vill":1728,"inv":1729,"living":1730,"mob":1731,"lame":1732,"rather":1733,"sive":1734,"everybody":1735,"quick":1736,"tweeting":1737,"disappo":1738,"xoxo":1739,"child":1740,"easy":1741,"celebr":1742,"absolutely":1743,"annoy":1744,"ale":1745,"cd":1746,"cred":1747,"dle":1748,"dry":1749,"fit":1750,"mama":1751,"ran":1752,"scar":1753,"wit":1754,"xi":1755,"arri":1756,"christ":1757,"worse":1758,"ended":1759,"hahah":1760,"fact":1761,"pleas":1762,"except":1763,"hubby":1764,"enjoying":1765,"wondering":1766,"astic":1767,"small":1768,"figure":1769,"touch":1770,"during":1771,"flo":1772,"gor":1773,"ist":1774,"ker":1775,"kit":1776,"pup":1777,"pra":1778,"via":1779,"host":1780,"lie":1781,"heal":1782,"worst":1783,"lake":1784,"deck":1785,"illy":1786,"luv":1787,"project":1788,"looked":1789,"drunk":1790,"traff":1791,"update":1792,"camera":1793,"thinks":1794,"earlier":1795,"slept":1796,"mobile":1797,"cous":1798,"loo":1799,"sus":1800,"thx":1801,"inted":1802,"stre":1803,"mode":1804,"comment":1805,"ooooo":1806,"grou":1807,"dire":1808,"hug":1809,"business":1810,"crying":1811,"yummy":1812,"brothers":1813,"18":1814,"dm":1815,"gig":1816,"san":1817,"vs":1818,"wood":1819,"recor":1820,"beat":1821,"loving":1822,"lip":1823,"whate":1824,"tist":1825,"havent":1826,"search":1827,"deal":1828,"yours":1829,"ohh":1830,"expe":1831,"exact":1832,"conne":1833,"needed":1834,"ession":1835,"played":1836,"shoes":1837,"fresh":1838,"arently":1839,"snl":1840,"blue":1841,"throat":1842,"traffic":1843,"aust":1844,"cross":1845,"ey":1846,"fic":1847,"four":1848,"ky":1849,"lone":1850,"pet":1851,"pull":1852,"squ":1853,"tum":1854,"inside":1855,"stick":1856,"myspace":1857,"tire":1858,"idk":1859,"core":1860,"****,":1861,"safe":1862,"paper":1863,"happens":1864,"updates":1865,"relaxing":1866,"windows":1867,"smile":1868,"fantastic":1869,"13":1870,"14":1871,"fish":1872,"jay":1873,"jam":1874,"ned":1875,"val":1876,"llen":1877,"along":1878,"sum":1879,"talent":1880,"cakes":1881,"wishes":1882,"ground":1883,"apparently":1884,"mins":1885,"jack":1886,"college":1887,"doctor":1888,"graduation":1889,"radio":1890,"16":1891,"25":1892,"2day":1893,"case":1894,"kiss":1895,"wall":1896,"resp":1897,"thes":1898,"llll":1899,"mend":1900,"chur":1901,"behind":1902,"moon":1903,"rip":1904,"math":1905,"ics":1906,"cali":1907,"cont":1908,"dio":1909,"wards":1910,"emp":1911,"company":1912,"bike":1913,"fingers":1914,"number":1915,"experi":1916,"(:":1917,"cas":1918,"flow":1919,"gee":1920,"hee":1921,"jor":1922,"ot":1923,"poo":1924,"pur":1925,"piss":1926,"vir":1927,"wine":1928,"thurs":1929,"issu":1930,"lets":1931,"edu":1932,"wife":1933,"note":1934,"tex":1935,"team":1936,"sleepy":1937,"pack":1938,"dies":1939,"cious":1940,"daught":1941,"sky":1942,"crash":1943,"burnt":1944,"dreams":1945,"hanging":1946,"fren":1947,"version":1948,"middle":1949,"whatever":1950,"24":1951,"2nd":1952,"bre":1953,"jus":1954,"pie":1955,"thy":1956,"lla":1957,"vegas":1958,"arm":1959,"sold":1960,"ada":1961,"alright":1962,"lazy":1963,"shin":1964,"tech":1965,"guit":1966,"homework":1967,"starts":1968,"forever":1969,"exciting":1970,"messages":1971,"possible":1972,"lonely":1973,"church":1974,").":1975,"bt":1976,"bee":1977,"bly":1978,"brow":1979,"flight":1980,"hanna":1981,"non":1982,"tay":1983,"wat":1984,"yup":1985,"return":1986,"ors":1987,"hosp":1988,"ford":1989,"ties":1990,"usted":1991,"cannot":1992,"****!":1993,"ilar":1994,"ump":1995,"event":1996,"stomach":1997,"longer":1998,"keeps":1999,"iiii":2000,"moved":2001,"graph":2002,"decid":2003,"quiet":2004,"swine":2005,"film":2006,"completely":2007,"officially":2008,"guitar":2009,"cid":2010,"ev":2011,"gan":2012,"hrs":2013,"lver":2014,"yr":2015,"ano":2016,"oun":2017,"memor":2018,"dom":2019,"justin":2020,"aint":2021,"packing":2022,"front":2023,"chicken":2024,"((":2025,":/":2026,"ban":2027,"ders":2028,"dig":2029,"eh":2030,"fy":2031,"fill":2032,"gun":2033,"hm":2034,"hates":2035,"ire":2036,"none":2037,"pink":2038,"sar":2039,"throw":2040,"rel":2041,"ham":2042,"ooh":2043,"andy":2044,"lia":2045,"nick":2046,"ppy":2047,"ship":2048,"feet":2049,"fever":2050,"felt":2051,"gue":2052,"share":2053,"mention":2054,"bbq":2055,"matter":2056,"ctive":2057,"gift":2058,"realized":2059,"appreciate":2060,"french":2061,"!?":2062,"60":2063,"ier":2064,"ler":2065,"nin":2066,"ses":2067,"shar":2068,"tan":2069,"ative":2070,"chan":2071,"road":2072,"nia":2073,"peace":2074,"worked":2075,"def":2076,"shif":2077,"yourself":2078,"ulous":2079,"yyy":2080,"gging":2081,"shot":2082,"proud":2083,"huh":2084,"voice":2085,"closed":2086,"clothes":2087,"shall":2088,"design":2089,"boyfriend":2090,"addic":2091,"sending":2092,"studying":2093,"revision":2094,"sexy":2095,"dvd":2096,"exactly":2097,"09":2098,"45":2099,"alot":2100,"bun":2101,"cri":2102,"eye":2103,"sis":2104,"ering":2105,"ising":2106,"isnt":2107,"len":2108,"momm":2109,"although":2110,"code":2111,"ssss":2112,".......":2113,"ield":2114,"spam":2115,"mix":2116,"stopped":2117,"eeeeeeee":2118,"desk":2119,"posted":2120,"staying":2121,"chillin":2122,"gutted":2123,"random":2124,"decided":2125,"80":2126,":'":2127,"cc":2128,"fat":2129,"gine":2130,"hon":2131,"lm":2132,"lan":2133,"pc":2134,"pes":2135,"peep":2136,"vious":2137,"ings":2138,"recom":2139,"holly":2140,"ado":2141,"nie":2142,"cancell":2143,"takes":2144,"comm":2145,"extra":2146,"miles":2147,"followed":2148,"bucks":2149,"david":2150,"track":2151,"july":2152,"hmmm":2153,"congrat":2154,"ville":2155,"street":2156,"hannah":2157,"hospital":2158,"recommend":2159,"ded":2160,"det":2161,"hat":2162,"kers":2163,"rd":2164,"ray":2165,"tat":2166,"wl":2167,"rele":2168,"ited":2169,"logy":2170,"webs":2171,"seat":2172,"cost":2173,"copy":2174,"raid":2175,"impress":2176,"sug":2177,"bag":2178,"bath":2179,"shut":2180,"taken":2181,"fest":2182,"feelin":2183,"sist":2184,"ents":2185,"gram":2186,"others":2187,"stor":2188,"paid":2189,"dia":2190,"rainy":2191,"awwww":2192,"single":2193,"walking":2194,"giving":2195,"straight":2196,"question":2197,"group":2198,"ava":2199,"egg":2200,"ging":2201,"han":2202,"ili":2203,"oc":2204,"smo":2205,"tend":2206,"ud":2207,"wind":2208,"wise":2209,"inclu":2210,"atte":2211,"mel":2212,"vent":2213,"legs":2214,"bel":2215,"log":2216,"gosh":2217,"form":2218,"heat":2219,"doll":2220,"dogs":2221,"coz":2222,"gettin":2223,"ically":2224,"suc":2225,"expen":2226,"const":2227,"mmm":2228,"miley":2229,"que":2230,"proper":2231,"tuesday":2232,"glass":2233,"support":2234,"vol":2235,"service":2236,"trou":2237,"deser":2238,"bummed":2239,"wearing":2240,"problems":2241,"current":2242,"changed":2243,"thursday":2244,"website":2245,"17":2246,"apo":2247,"bay":2248,"bang":2249,"iz":2250,"ican":2251,"sme":2252,"sand":2253,"tur":2254,"wk":2255,"hah":2256,"young":2257,"social":2258,"howe":2259,"etc":2260,"hew":2261,"west":2262,"posit":2263,"failed":2264,"waking":2265,"indeed":2266,"tween":2267,"scared":2268,"clou":2269,"wolver":2270,"block":2271,"enjoyed":2272,"wedn":2273,"sense":2274,"double":2275,"milk":2276,"bottle":2277,"dark":2278,"public":2279,"disappointed":2280,"taylor":2281,"trouble":2282,":-":2283,"cin":2284,"cats":2285,"dat":2286,"fli":2287,"gri":2288,"hes":2289,"ild":2290,"ku":2291,"match":2292,"pal":2293,"table":2294,"vy":2295,"onto":2296,"rece":2297,"hav":2298,"aller":2299,"ami":2300,"neigh":2301,"usually":2302,"death":2303,"shes":2304,"caught":2305,"conta":2306,"chel":2307,"!!!!!!":2308,"headed":2309,"schedu":2310,"nyc":2311,"plain":2312,"checked":2313,"certain":2314,"born":2315,"bummer":2316,"awful":2317,"videos":2318,"blackberry":2319,"twilight":2320,"install":2321,"annoying":2322,"daughter":2323,"cancelled":2324,"suggest":2325,"wolverine":2326,"!)":2327,"::":2328,"bare":2329,"brain":2330,"cried":2331,"ele":2332,"fut":2333,"ged":2334,"hilar":2335,"kat":2336,"mart":2337,"nut":2338,"sli":2339,"swe":2340,"sna":2341,"vic":2342,"insp":2343,"ered":2344,"ref":2345,"stat":2346,"hay":2347,"nobody":2348,"ener":2349,"chines":2350,"between":2351,"gover":2352,"allow":2353,"unes":2354,"door":2355,"sell":2356,"law":2357,"main":2358,"somewhere":2359,"race":2360,"nights":2361,"dest":2362,"shi":2363,"exha":2364,"bug":2365,"000":2366,"calling":2367,"lately":2368,"tonite":2369,"singing":2370,"minute":2371,"airport":2372,"mcfly":2373,"mouth":2374,"dunno":2375,"vacation":2376,"profile":2377,"tummy":2378,"peeps":2379,"however":2380,"wednesday":2381,"chinese":2382,"bal":2383,"cting":2384,"cru":2385,"darn":2386,"gust":2387,"ila":2388,"kay":2389,"pig":2390,"tb":2391,"mes":2392,"oops":2393,"noti":2394,"lov":2395,"goodbye":2396,"follower":2397,"stud":2398,"accid":2399,"starbucks":2400,"history":2401,"spell":2402,"classes":2403,"planning":2404,"south":2405,"american":2406,"children":2407,"cousin":2408,"congratul":2409,"22":2410,"3d":2411,"90":2412,"bc":2413,"bon":2414,"bio":2415,"dum":2416,"jour":2417,"ero":2418,"recover":2419,"atta":2420,"orts":2421,"argh":2422,"entire":2423,"ches":2424,"chic":2425,"nel":2426,"neck":2427,"uses":2428,"shoot":2429,"pot":2430,"anyways":2431,"mums":2432,"consid":2433,"geous":2434,"joe":2435,"hero":2436,"program":2437,"sort":2438,"access":2439,"brand":2440,"gged":2441,"?!?!":2442,"trans":2443,"favour":2444,"normal":2445,"imagine":2446,"freakin":2447,"bloody":2448,"fml":2449,"scary":2450,"gorgeous":2451,"puppy":2452,"expensive":2453,"hilarious":2454,"-)":2455,"b4":2456,"cla":2457,"cree":2458,"field":2459,"ror":2460,"session":2461,"uck":2462,"thru":2463,"resu":2464,"ork":2465,"lead":2466,"become":2467,"nic":2468,"magic":2469,"rac":2470,"usual":2471,"degre":2472,"tel":2473,"cap":2474,"contin":2475,"spring":2476,"everyday":2477,"prob":2478,"followfriday":2479,"mont":2480,"sunburn":2481,"afraid":2482,"pair":2483,"ruin":2484,"0000":2485,"travel":2486,"bird":2487,"games":2488,"daddy":2489,"sooooo":2490,"north":2491,"suppose":2492,"dancing":2493,"spending":2494,"knee":2495,"austra":2496,"success":2497,"contact":2498,"future":2499,"congratulations":2500,"3rd":2501,"?'":2502,"eu":2503,"fro":2504,"five":2505,"hone":2506,"hus":2507,"jer":2508,"jen":2509,"mill":2510,"pin":2511,"slight":2512,"tes":2513,"yah":2514,"ino":2515,"inks":2516,"itunes":2517,"soft":2518,"lose":2519,"likes":2520,"rocks":2521,"rid":2522,"color":2523,"ural":2524,"anytime":2525,"fol":2526,"sale":2527,"sig":2528,"ular":2529,"grrr":2530,"momma":2531,"showing":2532,"earth":2533,"interview":2534,"breaking":2535,"eeeee":2536,"disney":2537,"loads":2538,"speak":2539,"aaaaaaaa":2540,"buying":2541,"killed":2542,"ladies":2543,"fixed":2544,"window":2545,"machine":2546,"delicious":2547,"market":2548,"britain":2549,"experience":2550,"shift":2551,"availa":2552,"smell":2553,"accident":2554,"!'":2555,"26":2556,"2nite":2557,"aha":2558,"blast":2559,"emo":2560,"hook":2561,"jim":2562,"lam":2563,"uh":2564,"vate":2565,"yall":2566,"info":2567,"anti":2568,"anim":2569,"res":2570,"hall":2571,"arti":2572,"holy":2573,"loc":2574,"loss":2575,"often":2576,"ric":2577,"verse":2578,"worried":2579,"iron":2580,"major":2581,"sugar":2582,"poin":2583,"anybody":2584,"knows":2585,"fault":2586,"ility":2587,"oooooo":2588,"cheer":2589,"manag":2590,"brought":2591,"prin":2592,"tweetdeck":2593,"telling":2594,"gery":2595,"germany":2596,"frust":2597,"surgery":2598,"ctions":2599,"killing":2600,"hands":2601,"ahhhh":2602,"finger":2603,"spot":2604,"freaking":2605,"practi":2606,"currently":2607,"available":2608,"),":2609,"aun":2610,"bright":2611,"ctor":2612,"honey":2613,"iv":2614,"kar":2615,"nam":2616,"pend":2617,"ased":2618,"lied":2619,"outta":2620,"butter":2621,"terrible":2622,"area":2623,"import":2624,"thanx":2625,"tooth":2626,"bother":2627,"boss":2628,"fox":2629,"ohhh":2630,"iling":2631,"couldnt":2632,"ston":2633,"perfor":2634,"across":2635,"dying":2636,"scr":2637,"woman":2638,"keeping":2639,"places":2640,"tran":2641,"sweetie":2642,"grade":2643,"auto":2644,"soul":2645,"gener":2646,"direct":2647,"record":2648,"empty":2649,"flowers":2650,"article":2651,"_a":2652,"_c":2653,"base":2654,"dish":2655,"eff":2656,"epic":2657,"gers":2658,"loud":2659,"os":2660,"pee":2661,"pants":2662,"swear":2663,"silly":2664,"tar":2665,"toast":2666,"rew":2667,"state":2668,"notic":2669,"leno":2670,"lear":2671,"bey":2672,"bear":2673,"asking":2674,"assign":2675,"gold":2676,"fornia":2677,"libr":2678,"limit":2679,"rob":2680,"heh":2681,"tix":2682,"rie":2683,"doin":2684,"coast":2685,"canada":2686,"somebody":2687,"ical":2688,"shout":2689,"nah":2690,"feed":2691,"tast":2692,"grey":2693,"cheers":2694,"build":2695,"calls":2696,"scri":2697,"trail":2698,"series":2699,"turned":2700,"blah":2701,"camp":2702,"private":2703,"dentist":2704,"style":2705,"strange":2706,"alex":2707,"energy":2708,"exhausted":2709,"chicago":2710,"favourite":2711,"practice":2712,"',":2713,"'****":2714,"2mor":2715,"bf":2716,"bill":2717,"cough":2718,"deep":2719,"dney":2720,"fra":2721,"gross":2722,"ibly":2723,"kate":2724,"kitch":2725,"lis":2726,"las":2727,"mass":2728,"rated":2729,"tit":2730,"tis":2731,"yard":2732,"review":2733,"stal":2734,"lli":2735,"cher":2736,"chris":2737,"wide":2738,"theres":2739,"sever":2740,"ryan":2741,"delay":2742,"gotten":2743,"antly":2744,"shoo":2745,"misses":2746,"father":2747,"excell":2748,"everywhere":2749,"quit":2750,"phones":2751,"afford":2752,"type":2753,"dist":2754,"distra":2755,"acti":2756,"msn":2757,"writ":2758,"putting":2759,"stem":2760,"step":2761,"dave":2762,"women":2763,"kidding":2764,"turns":2765,"added":2766,"compet":2767,"august":2768,"flash":2769,"catching":2770,"falling":2771,"sides":2772,"america":2773,"ugly":2774,"ordered":2775,"apartment":2776,"california":2777,"notice":2778,"australia":2779,"husband":2780,"library":2781,"kitchen":2782,"&&":2783,"))":2784,"bru":2785,"coo":2786,"dj":2787,"dnt":2788,"hugh":2789,"pon":2790,"push":2791,"ron":2792,"ugg":2793,"za":2794,"incred":2795,"bell":2796,"unless":2797,"col":2798,"laun":2799,"abt":2800,"male":2801,"sss":2802,"bow":2803,"finals":2804,"six":2805,"convers":2806,"joke":2807,"quo":2808,"studio":2809,"lived":2810,"lives":2811,"married":2812,"clear":2813,"zzzz":2814,"thoughts":2815,"craving":2816,"skin":2817,"country":2818,"system":2819,"flat":2820,"quiz":2821,"seni":2822,"laying":2823,"soup":2824,"twice":2825,"macbook":2826,"nearly":2827,"natural":2828,"fabulous":2829,"depressing":2830,"depressed":2831,"productive":2832,"healthy":2833,"expected":2834,"graphy":2835,"memories":2836,"barely":2837,"allowed":2838,"honest":2839,"excellent":2840,"cro":2841,"cab":2842,"fla":2843,"file":2844,"gal":2845,"hr":2846,"jk":2847,"mall":2848,"pit":2849,"rof":2850,"rus":2851,"tag":2852,"wha":2853,"wis":2854,"woot":2855,"tough":2856,"orig":2857,"haps":2858,"hael":2859,"anda":2860,"begin":2861,"losing":2862,"local":2863,"timber":2864,"rich":2865,"idio":2866,"ups":2867,"tery":2868,"cance":2869,"dev":2870,"demi":2871,"sux":2872,"suff":2873,"background":2874,"wanting":2875,"exp":2876,"greg":2877,"mile":2878,"grr":2879,"perhaps":2880,"babys":2881,"mini":2882,"shots":2883,"scream":2884,"latest":2885,"aches":2886,"mary":2887,"tention":2888,"messed":2889,"plane":2890,"holidays":2891,"price":2892,"sydney":2893,"uuuu":2894,"nnn":2895,"straw":2896,"grandma":2897,"passed":2898,"blessed":2899,"strong":2900,"doubt":2901,"drop":2902,"dropped":2903,"confused":2904,"surprise":2905,"heaven":2906,"miser":2907,"kitty":2908,"issues":2909,"mommies":2910,":'(":2911,"storm":2912,"neighbor":2913,"schedule":2914,"noticed":2915,"laundry":2916,"21":2917,":]":2918,"bour":2919,"econ":2920,"east":2921,"ial":2922,"jes":2923,"nation":2924,"ol":2925,"oce":2926,"sco":2927,"vation":2928,"third":2929,"toe":2930,"topic":2931,"lled":2932,"mexi":2933,"ison":2934,"ark":2935,"asked":2936,"wild":2937,"sea":2938,"wasnt":2939,"somehow":2940,"workin":2941,"depend":2942,"exc":2943,"ilt":2944,"gear":2945,"phili":2946,"tweeps":2947,"igno":2948,"!!!!!!!":2949,"views":2950,"appear":2951,"drum":2952,"drama":2953,"marath":2954,"situ":2955,"blocked":2956,"treat":2957,"trend":2958,"helping":2959,"dden":2960,"challen":2961,"setting":2962,"crush":2963,"smh":2964,"smoo":2965,"ference":2966,"cooking":2967,"cookies":2968,"midnight":2969,"slowly":2970,"drag":2971,"dammit":2972,"interested":2973,"____":2974,"2009":2975,"realize":2976,"micro":2977,"buddy":2978,"teacher":2979,"fighting":2980,"obvious":2981,"arrived":2982,"floor":2983,"sushi":2984,"sharing":2985,"cloudy":2986,"euro":2987,"important":2988,"learning":2989,"timberlake":2990,"$$":2991,"'...":2992,"99":2993,";-)":2994,"_d":2995,"av":2996,"center":2997,"ik":2998,"jess":2999,"jump":3000,"noooo":3001,"rite":3002,"training":3003,"vous":3004,"wra":3005,"reco":3006,"request":3007,"atm":3008,"theat":3009,"itting":3010,"stri":3011,"station":3012,"ises":3013,"oooh":3014,"nose":3015,"arms":3016,"soci":3017,"hol":3018,"hotel":3019,"loy":3020,"ety":3021,"rice":3022,"keys":3023,"lyn":3024,"cep":3025,"button":3026,"ppines":3027,"url":3028,"goodness":3029,"nty":3030,"nails":3031,"temp":3032,"fave":3033,"wwww":3034,"mming":3035,"hasn":3036,"pres":3037,"queen":3038,"shouldn":3039,"diet":3040,"action":3041,"rained":3042,"hurting":3043,"closing":3044,"?!?":3045,"finishing":3046,"given":3047,"charac":3048,"supernatural":3049,"truly":3050,"painful":3051,"????????":3052,"flor":3053,"3333":3054,"cards":3055,"covered":3056,"simple":3057,"figured":3058,"entertain":3059,"presentation":3060,"stressed":3061,"michael":3062,"mount":3063,"teeth":3064,"washing":3065,"invite":3066,"credit":3067,"crossed":3068,"pissed":3069,"hangover":3070,"deserve":3071,"montana":3072,"slightly":3073,"philippines":3074,"_b":3075,"_n":3076,"bff":3077,"booo":3078,"dir":3079,"ew":3080,"ges":3081,"gah":3082,"hen":3083,"hill":3084,"jb":3085,"mam":3086,"mrs":3087,"nit":3088,"pies":3089,"pages":3090,"phew":3091,"sla":3092,"sie":3093,"sci":3094,"tgif":3095,"winter":3096,"invol":3097,"ani":3098,"tori":3099,"attend":3100,"oom":3101,"ene":3102,"ens":3103,"som":3104,"ching":3105,"choo":3106,"besides":3107,"admit":3108,"wire":3109,"heyy":3110,"ality":3111,"whoo":3112,"uncle":3113,"tip":3114,"sey":3115,"lakers":3116,"suit":3117,"sucked":3118,"sudden":3119,"plenty":3120,"saving":3121,"waste":3122,"geo":3123,"watchin":3124,"twittering":3125,"essay":3126,"cheap":3127,"player":3128,"gggg":3129,"daily":3130,"finding":3131,"zzy":3132,"hella":3133,"crappy":3134,"shake":3135,"lesson":3136,"jobs":3137,"spea":3138,"lights":3139,"corn":3140,"lines":3141,"paying":3142,"picked":3143,"learned":3144,"england":3145,"downloaded":3146,"pati":3147,"uploading":3148,"swimming":3149,"fourth":3150,"respond":3151,"contro":3152,"issue":3153,"piece":3154,"channel":3155,"deta":3156,"release":3157,"properly":3158,"glasses":3159,"folks":3160,"35":3161,"_x":3162,"ahead":3163,"awards":3164,"bers":3165,"bound":3166,"crow":3167,"dc":3168,"gies":3169,"ht":3170,"ith":3171,"itor":3172,"ji":3173,"lts":3174,"sir":3175,"wro":3176,"atl":3177,"sted":3178,"lll":3179,"meal":3180,"vet":3181,"velo":3182,"youre":3183,"ese":3184,"golf":3185,"adv":3186,"moti":3187,"wich":3188,"alarm":3189,"weight":3190,"nico":3191,"neither":3192,"notes":3193,"ury":3194,"mag":3195,"master":3196,"ending":3197,"del":3198,"delet":3199,"illa":3200,"happiness":3201,"mission":3202,"fake":3203,"iest":3204,"fridays":3205,"comfort":3206,"twitpic":3207,"prefer":3208,"lookin":3209,"ideas":3210,"stock":3211,"bull":3212,"bert":3213,"brad":3214,"cars":3215,"appro":3216,"booked":3217,"nervous":3218,"crack":3219,"famous":3220,"trad":3221,"happening":3222,"talked":3223,"ddd":3224,"stayed":3225,"cram":3226,"report":3227,"weren":3228,"planned":3229,"updated":3230,"aud":3231,"fancy":3232,"decis":3233,"oooooooooooooooo":3234,"click":3235,"emails":3236,"burned":3237,"easier":3238,"sims":3239,"episodes":3240,"joined":3241,"official":3242,"battery":3243,"swim":3244,"reminds":3245,"celebrate":3246,"pleasure":3247,"respon":3248,"addicted":3249,"lmfa":3250,"impressed":3251,"continue":3252,"several":3253,"conversation":3254,"marathon":3255,"details":3256,"deleted":3257,"27":3258,"500":3259,":|":3260,"_m":3261,"bble":3262,"bills":3263,"cs":3264,"cir":3265,"dru":3266,"ftw":3267,"ffin":3268,"gro":3269,"hd":3270,"iam":3271,"jum":3272,"kir":3273,"lou":3274,"nal":3275,"obs":3276,"rout":3277,"ues":3278,"yu":3279,"thn":3280,"thor":3281,"thum":3282,"toy":3283,"ret":3284,"regre":3285,"regi":3286,"research":3287,"steve":3288,"stru":3289,"llie":3290,"havin":3291,"island":3292,"nowhere":3293,"leigh":3294,"ara":3295,"logic":3296,"advice":3297,"cky":3298,"roast":3299,"wii":3300,"ets":3301,"alco":3302,"dol":3303,"sel":3304,"sele":3305,"ida":3306,"butt":3307,"pper":3308,"max":3309,"rah":3310,"imma":3311,"user":3312,"mornin":3313,"nasty":3314,"ished":3315,"taste":3316,"cavs":3317,"pls":3318,"plant":3319,"speed":3320,"sport":3321,"josh":3322,"ulu":3323,"mista":3324,"grab":3325,"ffff":3326,"badly":3327,"psy":3328,"parts":3329,"ggy":3330,"drinks":3331,"hurry":3332,"void":3333,"voted":3334,"tweeted":3335,"rrr":3336,"discus":3337,"clock":3338,"sites":3339,"boot":3340,"reality":3341,"chap":3342,"choice":3343,"blame":3344,"paint":3345,"painting":3346,"tttt":3347,"juice":3348,"tiny":3349,"matt":3350,"diffic":3351,"decide":3352,"promise":3353,"keyboard":3354,"laughing":3355,"deliver":3356,"employ":3357,"shining":3358,"tattoo":3359,"flick":3360,"ruined":3361,"million":3362,"points":3363,"managed":3364,"performan":3365,"scratch":3366,"trailer":3367,"quote":3368,"rofl":3369,"smooth":3370,"theatre":3371,"mountain":3372,"''":3373,"29":3374,"48":3375,"^^":3376,"_e":3377,"alive":3378,"bread":3379,"cine":3380,"dut":3381,"gd":3382,"ghost":3383,"hood":3384,"jan":3385,"lee":3386,"mt":3387,"mie":3388,"ns":3389,"nes":3390,"oper":3391,"swo":3392,"score":3393,"tun":3394,"ware":3395,"xbox":3396,"thunder":3397,"tos":3398,"reli":3399,"attention":3400,"ory":3401,"stream":3402,"media":3403,"arr":3404,"eng":3405,"ense":3406,"ched":3407,"becoming":3408,"asy":3409,"hop":3410,"lif":3411,"lio":3412,"rious":3413,"kept":3414,"vert":3415,"lying":3416,"secre":3417,"termin":3418,"cancer":3419,"ability":3420,"usa":3421,"develo":3422,"donal":3423,"shee":3424,"hows":3425,"aga":3426,"tears":3427,"anywhere":3428,"known":3429,"mul":3430,"fellow":3431,"offer":3432,"comments":3433,"extre":3434,"exist":3435,"ummm":3436,"convin":3437,"conference":3438,"migra":3439,"chester":3440,"gray":3441,"mondays":3442,"otherwise":3443,"packed":3444,"rubb":3445,"berries":3446,"bron":3447,"starving":3448,"starwars":3449,"apps":3450,"babies":3451,"amaz":3452,"mostly":3453,"steph":3454,"trave":3455,"server":3456,"biggest":3457,"helps":3458,"tons":3459,"talkin":3460,"james":3461,"partying":3462,"posting":3463,"realised":3464,"pix":3465,"truck":3466,"smart":3467,"frank":3468,"balls":3469,"charger":3470,"remembered":3471,"kkkk":3472,"stack":3473,"clip":3474,"climb":3475,"lord":3476,"woohoo":3477,"braz":3478,"dressed":3479,"large":3480,"praying":3481,"announ":3482,"basically":3483,"celebrating":3484,"cousins":3485,"kisses":3486,"evil":3487,"bunny":3488,"desktop":3489,"commun":3490,"seattle":3491,"including":3492,"turning":3493,"positive":3494,"signing":3495,"britains":3496,"baseball":3497,"wisdom":3498,"choose":3499,"wrote":3500,"secret":3501,"migraine":3502,".!":3503,"23":3504,"28":3505,"_k":3506,"_o":3507,"_car":3508,"ack":3509,"aim":3510,"ahaha":3511,"ator":3512,"bie":3513,"cnt":3514,"cable":3515,"ctic":3516,"dh":3517,"fru":3518,"gb":3519,"gie":3520,"hid":3521,"ired":3522,"lun":3523,"mpt":3524,"mtv":3525,"nur":3526,"nooo":3527,"pill":3528,"wen":3529,"whe":3530,"yer":3531,"york":3532,"zer":3533,"thon":3534,"tony":3535,"total":3536,"regu":3537,"replace":3538,"recent":3539,"organ":3540,"states":3541,"mee":3542,"medi":3543,"ism":3544,"eel":3545,"editing":3546,"ador":3547,"adam":3548,"adding":3549,"liking":3550,"ckey":3551,"rome":3552,"rose":3553,"heck":3554,"whis":3555,"kelly":3556,"coll":3557,"ppin":3558,"lack":3559,"ura":3560,"sometime":3561,"yeh":3562,"ific":3563,"tear":3564,"tail":3565,"sau":3566,"wave":3567,"ently":3568,"spin":3569,"spee":3570,"spid":3571,"slee":3572,"ards":3573,"mike":3574,"indi":3575,"against":3576,"waitin":3577,"accor":3578,"rub":3579,"downtown":3580,"cia":3581,"thomas":3582,"liter":3583,"msg":3584,"eeeeee":3585,"closer":3586,"tongue":3587,"listened":3588,"trust":3589,"gives":3590,"ashley":3591,"pier":3592,"corre":3593,"cris":3594,"ures":3595,"replies":3596,"norm":3597,"horse":3598,"standing":3599,"links":3600,"yyyyyyyy":3601,"cupcakes":3602,"2008":3603,"questions":3604,"centr":3605,"aaaay":3606,"popular":3607,"christian":3608,"texas":3609,"gunna":3610,"langu":3611,"bathroom":3612,"receive":3613,"suggestions":3614,"sweat":3615,"status":3616,"student":3617,"recovering":3618,"results":3619,"degrees":3620,"jimmy":3621,"massage":3622,"origin":3623,"ocean":3624,"trending":3625,"regular":3626,"!...":3627,"->":3628,"//":3629,"70":3630,"95":3631,"_j":3632,"_r":3633,"awhile":3634,"avoid":3635,"bk":3636,"bust":3637,"bones":3638,"fur":3639,"fash":3640,"gain":3641,"knight":3642,"lat":3643,"mir":3644,"ners":3645,"odd":3646,"pas":3647,"ply":3648,"pour":3649,"rush":3650,"sf":3651,"sion":3652,"txt":3653,"tree":3654,"uary":3655,"vive":3656,"wks":3657,"anut":3658,"ances":3659,"tooo":3660,"repe":3661,"theme":3662,"ites":3663,"orange":3664,"stair":3665,"hai":3666,"oomy":3667,"nom":3668,"youn":3669,"lem":3670,"artist":3671,"asap":3672,"hole":3673,"lock":3674,"goss":3675,"forum":3676,"rocked":3677,"aly":3678,"tim":3679,"tips":3680,"ids":3681,"tered":3682,"within":3683,"launch":3684,"abo":3685,"makin":3686,"peanut":3687,"impossible":3688,"bacon":3689,"anta":3690,"atest":3691,"poli":3692,"bob":3693,"boston":3694,"tem":3695,"tele":3696,"tax":3697,"fear":3698,"iel":3699,"gud":3700,"greatest":3701,"plz":3702,"cts":3703,"umm":3704,"contest":3705,"span":3706,"essed":3707,"mist":3708,"tweeters":3709,"ffle":3710,"bugs":3711,"bedtime":3712,"cip":3713,"letting":3714,"scare":3715,"voting":3716,"steak":3717,"nerd":3718,"cudd":3719,"para":3720,"paris":3721,"hearing":3722,"haircut":3723,"jeff":3724,"driver":3725,"ashed":3726,"posts":3727,"dddd":3728,"hunting":3729,"network":3730,"champ":3731,"pire":3732,"----":3733,"bury":3734,"burger":3735,"intment":3736,"soooooo":3737,"ttt":3738,"address":3739,"updating":3740,"audio":3741,"syn":3742,"insane":3743,"charge":3744,"tics":3745,"mcdonal":3746,"panic":3747,"seconds":3748,"subway":3749,"difference":3750,"kotb":3751,"laughed":3752,"bottom":3753,"effect":3754,"option":3755,"teaching":3756,"surprised":3757,"surprising":3758,"football":3759,"based":3760,"grown":3761,"growing":3762,"annoyed":3763,"christmas":3764,"health":3765,"pulled":3766,"doctors":3767,"purple":3768,"texting":3769,"shiny":3770,"brown":3771,"attempt":3772,"allergies":3773,"inspir":3774,"dumb":3775,"beyond":3776,"delayed":3777,"shooting":3778,"active":3779,"excuse":3780,"ignore":3781,"situation":3782,"obviously":3783,"science":3784,"speaking":3785,"regret":3786,"alcohol":3787,"difficult":3788,"performance":3789,"extreme":3790,"according":3791,"literally":3792,"fashion":3793,"stairs":3794,"140":3795,"6th":3796,"9am":3797,"_g":3798,"bing":3799,"bunch":3800,"cise":3801,"fon":3802,"gni":3803,"ilove":3804,"mare":3805,"mouse":3806,"nooooo":3807,"opp":3808,"pj":3809,"pine":3810,"ram":3811,"rup":3812,"sni":3813,"sour":3814,"teen":3815,"tmr":3816,"ux":3817,"vit":3818,"vine":3819,"vity":3820,"wet":3821,"wah":3822,"whew":3823,"yrs":3824,"zom":3825,"eric":3826,"error":3827,"toes":3828,"atar":3829,"atleast":3830,"org":3831,"stage":3832,"hack":3833,"nove":3834,"level":3835,"china":3836,"bein":3837,"beta":3838,"lid":3839,"liver":3840,"ution":3841,"mos":3842,"mote":3843,"unders":3844,"tight":3845,"term":3846,"terri":3847,"neg":3848,"lab":3849,"lawn":3850,"laws":3851,"urgh":3852,"someday":3853,"goodmorning":3854,"usion":3855,"dece":3856,"bah":3857,"shat":3858,"pos":3859,"hahahahaha":3860,"muffin":3861,"fection":3862,"female":3863,"fridge":3864,"commer":3865,"greet":3866,"hadn":3867,"funer":3868,"sports":3869,"ooooooo":3870,"miche":3871,"miami":3872,"phys":3873,"tweeple":3874,"sunburnt":3875,"manage":3876,"acting":3877,"accep":3878,"pical":3879,"angry":3880,"stars":3881,"gloomy":3882,"besties":3883,"ears":3884,"ggin":3885,"gger":3886,"couch":3887,"actual":3888,"feelings":3889,"bigger":3890,"eeeeeee":3891,"mush":3892,"roomm":3893,"parking":3894,"blank":3895,"lessons":3896,"desp":3897,"japan":3898,"ski":3899,"skills":3900,"30pm":3901,"embar":3902,"aaaaa":3903,"freezing":3904,"classic":3905,"counting":3906,"truth":3907,"replied":3908,"walked":3909,"fran":3910,"france":3911,"awsome":3912,"cleaned":3913,"??????":3914,"hehehe":3915,"handle":3916,"clue":3917,"chilling":3918,"flying":3919,"aka":3920,"cookie":3921,"opening":3922,"switch":3923,"drawing":3924,"screwed":3925,"!!!!!!!!!!!!!!!!":3926,"picking":3927,"massive":3928,"xxxxxxxx":3929,"changing":3930,"teena":3931,"hyper":3932,"expect":3933,"connection":3934,"square":3935,"geek":3936,"virtu":3937,"memory":3938,"sarah":3939,"octo":3940,"attemp":3941,"izon":3942,"sandwich":3943,"nuts":3944,"frustrated":3945,"dishes":3946,"2moro":3947,"competition":3948,"senior":3949,"honestly":3950,"idiot":3951,"miserable":3952,"jesus":3953,"florida":3954,"dirty":3955,"_carter":3956,"adorable":3957,"speech":3958,"!..":3959,"'!":3960,".)":3961,"6am":3962,"?)":3963,"_0":3964,"amy":3965,"alo":3966,"aur":3967,"aus":3968,"aks":3969,"bits":3970,"cul":3971,"dye":3972,"fg":3973,"gf":3974,"gam":3975,"hills":3976,"ied":3977,"lum":3978,"mur":3979,"nv":3980,"noo":3981,"nood":3982,"nkotb":3983,"od":3984,"omy":3985,"oven":3986,"pha":3987,"pad":3988,"pound":3989,"snow":3990,"sry":3991,"swed":3992,"tab":3993,"tune":3994,"wd":3995,"wers":3996,"yi":3997,"zo":3998,"zen":3999,"thri":4000,"anni":4001,"tok":4002,"ature":4003,"thetic":4004,"orious":4005,"sting":4006,"metal":4007,"lemon":4008,"soc":4009,"belly":4010,"loser":4011,"advent":4012,"rot":4013,"role":4014,"alas":4015,"tial":4016,"river":4017,"dos":4018,"sep":4019,"worries":4020,"ably":4021,"rachel":4022,"workout":4023,"usb":4024,"gots":4025,"sher":4026,"pota":4027,"agre":4028,"bore":4029,"****...":4030,"knowing":4031,"folio":4032,"caf":4033,"cape":4034,"william":4035,"guest":4036,"confir":4037,"spa":4038,"spir":4039,"twitters":4040,"everytime":4041,"mies":4042,"previous":4043,"quar":4044,"process":4045,"philly":4046,"friendly":4047,"gran":4048,"ffy":4049,"perio":4050,"rule":4051,"ruby":4052,"weekends":4053,"mental":4054,"carry":4055,"appe":4056,"schools":4057,"glas":4058,"glorious":4059,"gaz":4060,"broad":4061,"thankyou":4062,"thankful":4063,"surely":4064,"yayy":4065,"disco":4066,"sittin":4067,"hardly":4068,"roof":4069,"runs":4070,"tors":4071,"xxx":4072,"spect":4073,"vision":4074,"visiting":4075,"weak":4076,"30am":4077,"aaaaaa":4078,"survive":4079,"medic":4080,"chips":4081,"mummy":4082,"danny":4083,"grandparents":4084,"screw":4085,"woop":4086,"brian":4087,"pancakes":4088,"drove":4089,"chatting":4090,"firefox":4091,"possibly":4092,"revising":4093,"battle":4094,"budget":4095,"salad":4096,"model":4097,"sanct":4098,"connected":4099,"content":4100,"fyi":4101,"eggs":4102,"certainly":4103,"emotion":4104,"assignments":4105,"building":4106,"bowling":4107,"canceled":4108,"babysitting":4109,"mexican":4110,"challenge":4111,"avatar":4112,"control":4113,"nicole":4114,"comfortable":4115,"lmfao":4116,"drugs":4117,"cinema":4118,"swollen":4119,"rubbish":4120,"brazil":4121,"sauce":4122,"spider":4123,"normally":4124,"gossip":4125,"extremely":4126,"despite":4127,"period":4128,"!.":4129,"300":4130,"4am":4131,"7am":4132,"88":4133,":@":4134,"=]":4135,">.":4136,"_mar":4137,"ax":4138,"bam":4139,"cere":4140,"cie":4141,"cig":4142,"cash":4143,"dust":4144,"ea":4145,"eww":4146,"fc":4147,"fle":4148,"fed":4149,"fool":4150,"flies":4151,"hous":4152,"hulu":4153,"ix":4154,"idol":4155,"kim":4156,"lang":4157,"ml":4158,"mers":4159,"nan":4160,"oaks":4161,"ption":4162,"pills":4163,"rit":4164,"rare":4165,"rab":4166,"rise":4167,"scan":4168,"tro":4169,"tam":4170,"wan":4171,"wok":4172,"wats":4173,"zoo":4174,"zero":4175,"~~":4176,"thir":4177,"ini":4178,"inve":4179,"anne":4180,"err":4181,"tout":4182,"toys":4183,"tops":4184,"rehear":4185,"regard":4186,"refresh":4187,"respect":4188,"meh":4189,"meeee":4190,"ees":4191,"nothin":4192,"edge":4193,"soph":4194,"sober":4195,"socks":4196,"bears":4197,"bella":4198,"assu":4199,"aswell":4200,"hopes":4201,"forgive":4202,"moz":4203,"ung":4204,"rick":4205,"cock":4206,"ppers":4207,"urk":4208,"magaz":4209,"iced":4210,"iculous":4211,"ends":4212,"demo":4213,"likely":4214,"bac":4215,"bags":4216,"shu":4217,"shou":4218,"shud":4219,"pose":4220,"polit":4221,"ify":4222,"boat":4223,"taco":4224,"cafe":4225,"sales":4226,"comin":4227,"complain":4228,"gum":4229,"size":4230,"cond":4231,"contra":4232,"prep":4233,"premi":4234,"quality":4235,"chest":4236,"stone":4237,"reach":4238,"heads":4239,"rude":4240,"picnic":4241,"rains":4242,"applic":4243,"himself":4244,"girlfriend":4245,"fied":4246,"ullen":4247,"drank":4248,"aching":4249,"dale":4250,"breath":4251,"breathe":4252,"cutting":4253,"checking":4254,"parano":4255,"jeans":4256,"jacks":4257,"angel":4258,"borrow":4259,"photoshop":4260,"photography":4261,"dads":4262,"restaur":4263,"hangin":4264,"noring":4265,"personal":4266,"giant":4267,"ahhhhh":4268,"signed":4269,"vista":4270,"brings":4271,"bringing":4272,"snee":4273,"diego":4274,"collection":4275,"brilli":4276,"castle":4277,"hhhhhhhh":4278,"downloading":4279,"numbers":4280,"prayers":4281,"fuck":4282,"heavy":4283,"arrive":4284,"recording":4285,"talented":4286,"package":4287,"events":4288,"iiiiiiii":4289,"banana":4290,"sara":4291,"hollyoaks":4292,"adore":4293,"smoke":4294,"constantly":4295,"clouds":4296,"installed":4297,"elect":4298,"considering":4299,"degree":4300,"00000000":4301,"successful":4302,"aunt":4303,"limited":4304,"lisa":4305,"title":4306,"files":4307,"economy":4308,"national":4309,"depends":4310,"europe":4311,"involved":4312,"grocer":4313,"selves":4314,"mistake":4315,"chapter":4316,"pillow":4317,"original":4318,"younger":4319,"mcdonalds":4320,"roommate":4321,"october":4322,"soccer":4323,"sanctuary":4324,"()":4325,"5th":4326,"_in":4327,"ao":4328,"bin":4329,"bul":4330,"blip":4331,"cass":4332,"ctory":4333,"candy":4334,"dates":4335,"f1":4336,"fif":4337,"gur":4338,"hs":4339,"hating":4340,"ize":4341,"jr":4342,"ket":4343,"moo":4344,"mates":4345,"noooooooo":4346,"nug":4347,"ore":4348,"phe":4349,"pred":4350,"pity":4351,"sma":4352,"spl":4353,"tn":4354,"tx":4355,"tty":4356,"yess":4357,"yuck":4358,"thus":4359,"inting":4360,"erin":4361,"todd":4362,"topics":4363,"..!":4364,"reg":4365,"reck":4366,"resist":4367,"ora":4368,"stic":4369,"mester":4370,"ayy":4371,"myster":4372,"andon":4373,"arg":4374,"army":4375,"edit":4376,"ences":4377,"chu":4378,"esp":4379,"locked":4380,"lovin":4381,"gow":4382,"advert":4383,"force":4384,"forced":4385,"alley":4386,"...'":4387,"...)":4388,"rocking":4389,"motor":4390,"wid":4391,"wicked":4392,"ala":4393,"unfair":4394,"riding":4395,"outfit":4396,"docu":4397,"sec":4398,"semester":4399,"amp":4400,"cow":4401,"coach":4402,"lah":4403,"laid":4404,"abandon":4405,"mah":4406,"nightmare":4407,"dem":4408,"tood":4409,"morris":4410,"pol":4411,"ague":4412,"bomb":4413,"issy":4414,"faces":4415,"saved":4416,"fried":4417,"ohhhh":4418,"comfy":4419,"exer":4420,"gress":4421,"sight":4422,"spain":4423,"spread":4424,"twitterland":4425,"mia":4426,"sadness":4427,"quot":4428,"prove":4429,"probs":4430,"provid":4431,"phil":4432,"chem":4433,"shel":4434,"gr8":4435,"tweetie":4436,"wonders":4437,"stories":4438,"typical":4439,"pathetic":4440,"whoa":4441,"bubble":4442,"dice":4443,"headaches":4444,"cies":4445,"brook":4446,"ps3":4447,"appt":4448,"letter":4449,"ggie":4450,"shops":4451,"print":4452,"scene":4453,"couver":4454,"tribut":4455,"steal":4456,"wore":4457,"older":4458,"zzle":4459,"blow":4460,"blogging":4461,"craz":4462,"rooms":4463,"curious":4464,"bling":4465,"winning":4466,"singapo":4467,"helped":4468,"chain":4469,"chase":4470,"settle":4471,"meaning":4472,"walmart":4473,"smiling":4474,"named":4475,"names":4476,"?????":4477,"dreaming":4478,"cycle":4479,"cyrus":4480,"portfolio":4481,"uuu":4482,"horror":4483,"grace":4484,"versary":4485,"charged":4486,"333":4487,"lina":4488,"bands":4489,"creative":4490,"court":4491,"rings":4492,"snugg":4493,"venue":4494,"ledge":4495,"bridge":4496,"spoke":4497,"subject":4498,"subscri":4499,"1000":4500,"gifts":4501,"appointment":4502,"custo":4503,"revise":4504,"mbers":4505,"vancouver":4506,"swift":4507,"trains":4508,"holding":4509,"invited":4510,"loose":4511,"searching":4512,"ription":4513,"skype":4514,"crashed":4515,"techno":4516,"((((":4517,"filling":4518,"filled":4519,"lence":4520,"mommas":4521,"dedic":4522,"released":4523,"sisters":4524,"smoking":4525,"logies":4526,"palm":4527,"reception":4528,"katie":4529,"cruise":4530,"students":4531,"journey":4532,"consider":4533,"creepy":4534,"contacts":4535,"ridiculous":4536,"smells":4537,"ivity":4538,"bothered":4539,"transl":4540,"golden":4541,"incredible":4542,"incredibly":4543,"beginning":4544,"explo":4545,"strawberries":4546,"microsoft":4547,"recogni":4548,"wireless":4549,"decision":4550,"duty":4551,"terminator":4552,"whether":4553,"correct":4554,"paramore":4555,"december":4556,"anniversary":4557,"agreed":4558,"glasgow":4559,"magazine":4560,"shoutout":4561,"paranoid":4562,"singapore":4563,"05":4564,"3am":4565,"75":4566,"8am":4567,">>":4568,"_xo":4569,"ai":4570,"az":4571,"apt":4572,"apy":4573,"bou":4574,"bone":4575,"bic":4576,"bies":4577,"bass":4578,"bask":4579,"cand":4580,"cad":4581,"cries":4582,"dre":4583,"diss":4584,"daf":4585,"e3":4586,"ec":4587,"ebay":4588,"fal":4589,"ffa":4590,"g1":4591,"gooo":4592,"hw":4593,"hic":4594,"hide":4595,"ib":4596,"imo":4597,"ike":4598,"ius":4599,"izing":4600,"ival":4601,"jt":4602,"jet":4603,"jason":4604,"looo":4605,"mater":4606,"mask":4607,"nz":4608,"nis":4609,"pun":4610,"pout":4611,"pam":4612,"rat":4613,"rang":4614,"rass":4615,"rating":4616,"slo":4617,"sway":4618,"var":4619,"vio":4620,"wand":4621,"wooo":4622,"incre":4623,"infection":4624,"erd":4625,"tore":4626,"ount":4627,"requi":4628,"repair":4629,"reviews":4630,"attra":4631,"theory":4632,"iter":4633,"itter":4634,"sti":4635,"isa":4636,"iser":4637,"oof":4638,"ands":4639,"edin":4640,"ening":4641,"beth":4642,"belong":4643,"hoor":4644,"hollie":4645,"homie":4646,"hockey":4647,"ghhh":4648,"adi":4649,"ckin":4650,"wifi":4651,"held":4652,"union":4653,"united":4654,"riage":4655,"seats":4656,"tern":4657,"nephew":4658,"pear":4659,"uss":4660,"baked":4661,"tools":4662,"poet":4663,"poten":4664,"pocket":4665,"polar":4666,"bowl":4667,"tease":4668,"twits":4669,"finale":4670,"fold":4671,"focus":4672,"cale":4673,"faster":4674,"ours":4675,"fries":4676,"arts":4677,"plu":4678,"plurk":4679,"cture":4680,"function":4681,"geor":4682,"whenever":4683,"comedy":4684,"ulti":4685,"quet":4686,"promo":4687,"useful":4688,"indian":4689,"chemist":4690,"grate":4691,"grass":4692,"grrrrr":4693,"sundays":4694,"!!!!!!!!!":4695,"ffs":4696,"sayin":4697,"paul":4698,"buck":4699,"buzz":4700,"diam":4701,"yeahh":4702,"leavin":4703,"suppor":4704,"ggg":4705,"forest":4706,"wrk":4707,"humor":4708,"trips":4709,"luckily":4710,"birds":4711,"warning":4712,"sity":4713,"blocks":4714,"bleed":4715,"10th":4716,"helpful":4717,"spec":4718,"angels":4719,"farm":4720,"uren":4721,"hahahah":4722,"burri":4723,"tests":4724,"testing":4725,"pride":4726,"nnnn":4727,"publ":4728,"charlie":4729,"kkk":4730,"chilled":4731,"imagin":4732,"decent":4733,"created":4734,"staff":4735,"grandpa":4736,"swing":4737,"client":4738,"draw":4739,"shortly":4740,"damnit":4741,"garage":4742,"graduate":4743,"smiles":4744,"recipe":4745,"joining":4746,"hhhhh":4747,"effort":4748,"wings":4749,"uploaded":4750,"kicked":4751,"appreciated":4752,"profession":4753,"rands":4754,"humid":4755,"village":4756,"quickly":4757,"witty":4758,"pleased":4759,"austin":4760,"llllllll":4761,"maths":4762,"poop":4763,"ounge":4764,"relation":4765,"festival":4766,"wknd":4767,"selling":4768,"attack":4769,"transfer":4770,"jerk":4771,"yahoo":4772,"accidentally":4773,"anticip":4774,"princess":4775,"karma":4776,"assignment":4777,"tastes":4778,"tastic":4779,"script":4780,"2morrow":4781,"suffering":4782,"settings":4783,"character":4784,"characters":4785,"patient":4786,"obsessed":4787,"thumb":4788,"register":4789,"fruit":4790,"language":4791,"above":4792,"police":4793,"inspiration":4794,"tmrw":4795,"november":4796,"commercial":4797,"funeral":4798,"noodles":4799,"tokyo":4800,"boredom":4801,"woken":4802,"invest":4803,"brilliant":4804,"grocery":4805,"predic":4806,"'?":4807,"([":4808,"08":4809,"36":4810,"360":4811,"400":4812,"55":4813,"78":4814,"<<":4815,"=/":4816,"_s":4817,"_w":4818,"_me":4819,"_la":4820,"awh":4821,"aver":4822,"aid":4823,"athan":4824,"aah":4825,"bid":4826,"cto":4827,"chas":4828,"dall":4829,"dread":4830,"drew":4831,"eli":4832,"equ":4833,"eight":4834,"fas":4835,"fare":4836,"gm":4837,"goooo":4838,"hated":4839,"ized":4840,"jane":4841,"juni":4842,"jury":4843,"kan":4844,"lounge":4845,"munch":4846,"nash":4847,"ox":4848,"oz":4849,"pg":4850,"pff":4851,"pitch":4852,"rin":4853,"rant":4854,"sr":4855,"sink":4856,"sang":4857,"sms":4858,"snap":4859,"tm":4860,"task":4861,"ude":4862,"uhh":4863,"vp":4864,"xious":4865,"zes":4866,"zone":4867,"zac":4868,"insur":4869,"insom":4870,"antic":4871,"anxi":4872,"errands":4873,"toma":4874,"toss":4875,"..?":4876,"reee":4877,"retweet":4878,"theater":4879,"ities":4880,"itions":4881,"itali":4882,"members":4883,"veget":4884,"no1":4885,"noes":4886,"solo":4887,"chit":4888,"dayy":4889,"bes":4890,"bean":4891,"beans":4892,"became":4893,"asing":4894,"asse":4895,"los":4896,"logo":4897,"lova":4898,"utter":4899,"roy":4900,"ette":4901,"aland":4902,"wher":4903,"unable":4904,"doors":4905,"cop":4906,"coding":4907,"upgrad":4908,"pppp":4909,"wassup":4910,"lace":4911,"lauren":4912,"rap":4913,"rage":4914,"ices":4915,"nighty":4916,"dele":4917,"bai":4918,"bahaha":4919,"tool":4920,"yellow":4921,"nathan":4922,"agues":4923,"tember":4924,"tape":4925,"****-":4926,"lolz":4927,"missin":4928,"saus":4929,"wasted":4930,"compl":4931,"comics":4932,"gree":4933,"entry":4934,"items":4935,"spill":4936,"twitterverse":4937,"every1":4938,"ooooh":4939,"mich":4940,"mily":4941,"preview":4942,"wouldnt":4943,"useless":4944,"sorted":4945,"igan":4946,"bleh":4947,"mango":4948,"manchester":4949,"shoulder":4950,"buff":4951,"makeup":4952,"stub":4953,"nicely":4954,"perth":4955,"perate":4956,"accompl":4957,"rubs":4958,"plays":4959,"afterwards":4960,"hip":4961,"brush":4962,"peoples":4963,"gling":4964,"mint":4965,"mines":4966,"minus":4967,"partner":4968,"girlfriends":4969,"ughh":4970,"ughhh":4971,"omfg":4972,"duck":4973,"coun":4974,"dawn":4975,"mari":4976,"marley":4977,"marriage":4978,"cure":4979,"partic":4980,"parties":4981,"blind":4982,"toronto":4983,"trade":4984,"boom":4985,"lower":4986,"jail":4987,"ankle":4988,"hunt":4989,"pens":4990,"emer":4991,"german":4992,"corner":4993,"---":4994,"leaves":4995,"frm":4996,"beauty":4997,"burg":4998,"intro":4999,"sooooooo":5000,"???????":5001,"kenny":5002,"killers":5003,"complic":5004,"cycl":5005,"camping":5006,"audi":5007,"sym":5008,"failing":5009,"cares":5010,"jonathan":5011,"diff":5012,"mitchel":5013,"computers":5014,"2010":5015,"crew":5016,"definately":5017,"yyyyy":5018,"denver":5019,"moments":5020,"podcast":5021,"korea":5022,"dougie":5023,"filming":5024,"shirts":5025,"darling":5026,"native":5027,"delivery":5028,"legal":5029,"britney":5030,"salt":5031,"human":5032,"obama":5033,"disappointing":5034,"kitten":5035,"crossing":5036,"geez":5037,"jordan":5038,"texts":5039,"pieces":5040,"digital":5041,"related":5042,"relative":5043,"niece":5044,"haters":5045,"include":5046,"constant":5047,"position":5048,"sweating":5049,"inspired":5050,"leader":5051,"tesco":5052,"grrrr":5053,"marketing":5054,"animal":5055,"animals":5056,"location":5057,"_cullen":5058,"frame":5059,"seniors":5060,"cancel":5061,"screaming":5062,"neighbors":5063,"society":5064,"henrie":5065,"motivation":5066,"tradition":5067,"cramps":5068,"response":5069,"kirk":5070,"thnx":5071,"delivered":5072,"engage":5073,"multi":5074,"convinced":5075,"starwarsday":5076,"community":5077,"received":5078,"pouring":5079,"spanish":5080,"surprisingly":5081,"michelle":5082,"japanese":5083,"september":5084,"restaurant":5085,"brooklyn":5086,"basket":5087,"goood":5088,"chemistry":5089,"grateful":5090,"dallas":5091,"italian":5092,"particular":5093,")...":5094,"06":5095,"250":5096,"31":5097,"38":5098,"46":5099,"4pm":5100,"7th":5101,"</":5102,"=(":5103,"==":5104,"?!!":5105,"_the":5106,"_ben":5107,"afri":5108,"cis":5109,"cate":5110,"cum":5111,"crun":5112,"dk":5113,"dee":5114,"doo":5115,"dare":5116,"dreading":5117,"ell":5118,"eclip":5119,"fry":5120,"fts":5121,"fty":5122,"fusion":5123,"gmail":5124,"gins":5125,"gaga":5126,"h1":5127,"hp":5128,"ians":5129,"jst":5130,"jun":5131,"keen":5132,"krist":5133,"mk":5134,"nine":5135,"pong":5136,"pum":5137,"punch":5138,"pure":5139,"punk":5140,"panda":5141,"rate":5142,"sab":5143,"ub":5144,"uber":5145,"urie":5146,"vor":5147,"valley":5148,"wana":5149,"wud":5150,"yaa":5151,"zi":5152,"tht":5153,"thous":5154,"thunders":5155,"inn":5156,"ery":5157,"tooooo":5158,"toooo":5159,"ington":5160,"resc":5161,"remote":5162,"atic":5163,"stan":5164,"steel":5165,"lling":5166,"meee":5167,"meds":5168,"member":5169,"halo":5170,"aye":5171,"youth":5172,"andrew":5173,"lex":5174,"lest":5175,"ena":5176,"chin":5177,"chuck":5178,"bec":5179,"ads":5180,"ades":5181,"adult":5182,"lime":5183,"cken":5184,"mow":5185,"wie":5186,"eta":5187,"whee":5188,"whil":5189,"***":5190,"unhappy":5191,"tive":5192,"tiring":5193,"rio":5194,"veron":5195,"verizon":5196,"dow":5197,"secur":5198,"amber":5199,"amusing":5200,"amount":5201,"cot":5202,"coke":5203,"cowork":5204,"upon":5205,"upgrade":5206,"ira":5207,"abs":5208,"aby":5209,"raz":5210,"deb":5211,"bage":5212,"baking":5213,"shorts":5214,"ksha":5215,"morn":5216,"naw":5217,"nail":5218,"thingy":5219,"poll":5220,"pole":5221,"aged":5222,"todays":5223,"twin":5224,"twpp":5225,"twins":5226,"****?":5227,"backup":5228,".........":5229,"factor":5230,"faith":5231,"mud":5232,"wack":5233,"waaa":5234,"waves":5235,"common":5236,"guil":5237,"exchange":5238,"explain":5239,"plor":5240,"plants":5241,"sible":5242,"silence":5243,"iland":5244,"umble":5245,"converse":5246,"spr":5247,"spac":5248,"spark":5249,"jokes":5250,"twitterberry":5251,"arded":5252,"prote":5253,"progress":5254,"phy":5255,"indust":5256,"friendster":5257,"tomorow":5258,"mons":5259,"monitor":5260,"stole":5261,"stoked":5262,"pau":5263,"showed":5264,"dip":5265,"rug":5266,"harry":5267,"harder":5268,"hardest":5269,"hiya":5270,"bris":5271,"caro":5272,"minor":5273,"awesomeness":5274,"bros":5275,"shocked":5276,"listed":5277,"prison":5278,"scen":5279,"dub":5280,"dubl":5281,"votes":5282,"clar":5283,"cloud":5284,"marks":5285,"clever":5286,"woe":5287,"bitter":5288,"zzz":5289,"blows":5290,"craw":5291,"craig":5292,"tells":5293,"muscle":5294,"shape":5295,"parks":5296,"blon":5297,"blink":5298,"winner":5299,"trash":5300,"drivers":5301,"jacket":5302,"java":5303,"skies":5304,"musical":5305,"stuffed":5306,"empire":5307,"surround":5308,"burgh":5309,"burning":5310,"lando":5311,"foods":5312,"judge":5313,"killer":5314,"compli":5315,"bbc":5316,"chili":5317,"prior":5318,"hitting":5319,"lley":5320,"personally":5321,"horri":5322,"matic":5323,"highly":5324,"imac":5325,"image":5326,"vids":5327,"biz":5328,"mommys":5329,"grandmother":5330,"passes":5331,"password":5332,"slower":5333,"cups":5334,"goose":5335,"pays":5336,"colleagues":5337,"license":5338,"bride":5339,"tommor":5340,"similar":5341,"accounts":5342,"strang":5343,"smith":5344,"films":5345,"blues":5346,"genius":5347,"presents":5348,"centre":5349,"danger":5350,"stores":5351,"................":5352,"stressful":5353,"changes":5354,"answered":5355,"cheesecake":5356,"opin":5357,"britt":5358,",,,":5359,"portu":5360,"thailand":5361,"kicking":5362,"washed":5363,"knock":5364,"reminded":5365,"product":5366,"invit":5367,"pleasant":5368,"suspe":5369,"models":5370,"groups":5371,"expecting":5372,"connect":5373,"squir":5374,"jamie":5375,"grounded":5376,"heels":5377,"virgin":5378,"daughters":5379,"browser":5380,"returned":5381,"evry":5382,"hmph":5383,"buntu":5384,"crimin":5385,"rays":5386,"costs":5387,"ginger":5388,"constru":5389,"grill":5390,"neighbour":5391,"slice":5392,"pigs":5393,"spelling":5394,"americans":5395,"result":5396,"hooked":5397,"lamb":5398,"richard":5399,"frustrating":5400,"transport":5401,"soulja":5402,"general":5403,"target":5404,"feedback":5405,"'****?":5406,"distur":5407,"distracted":5408,"pony":5409,"strawberry":5410,"bourne":5411,"mexico":5412,"wrap":5413,"entertaining":5414,"geography":5415,"advance":5416,"retarded":5417,"discuss":5418,"amazon":5419,"recently":5420,"whisper":5421,"central":5422,"cuddle":5423,"effects":5424,"negative":5425,"accepted":5426,"virtual":5427,"attempting":5428,"aussie":5429,"potato":5430,"spirit":5431,"emotional":5432,"_marie":5433,"flew":5434,"houston":5435,"rarely":5436,"application":5437,"jackson":5438,"mystery":5439,"exercise":5440,"quotes":5441,"customer":5442,"recognize":5443,"hooray":5444,"potential":5445,"george":5446,"ultimate":5447,"diamond":5448,"lovato":5449,"delete":5450,"complicated":5451,"eclipse":5452,"whilst":5453,"security":5454,"dublin":5455,"!:":5456,"'..":5457,".,":5458,"39":5459,"47":5460,"5k":5461,"5am":5462,"8th":5463,"800":5464,"96":5465,":\\":5466,"_l":5467,"_ro":5468,"_12":5469,"_henrie":5470,"bite":5471,"boooooooo":5472,"boun":5473,"cen":5474,"chair":5475,"dim":5476,"dess":5477,"dork":5478,"eno":5479,"eag":5480,"ellen":5481,"fs":5482,"fid":5483,"fig":5484,"furn":5485,"gim":5486,"gang":5487,"galler":5488,"hits":5489,"ime":5490,"junk":5491,"kc":5492,"kas":5493,"kins":5494,"lers":5495,"lind":5496,"mim":5497,"mite":5498,"nh":5499,"nu":5500,"nas":5501,"owe":5502,"oil":5503,"pd":5504,"pid":5505,"pment":5506,"rc":5507,"rly":5508,"rum":5509,"shave":5510,"slip":5511,"santa":5512,"stood":5513,"sissy":5514,"tas":5515,"tut":5516,"tup":5517,"ucks":5518,"ubuntu":5519,"vv":5520,"vam":5521,"wu":5522,"wend":5523,"wink":5524,"wrist":5525,"thread":5526,"threw":5527,"ined":5528,"anthon":5529,"toni":5530,"toile":5531,"inge":5532,"onion":5533,"rek":5534,"rey":5535,"reall":5536,"thee":5537,"itt":5538,"itself":5539,"iture":5540,"stun":5541,"stink":5542,"stinks":5543,"meat":5544,"hal":5545,"hawa":5546,"habit":5547,"noise":5548,"leon":5549,"lebron":5550,"aron":5551,"chet":5552,"bebo":5553,"beard":5554,"belive":5555,"beats":5556,"asha":5557,"hoe":5558,"holl":5559,"holes":5560,"gov":5561,"goal":5562,"ghh":5563,"forth":5564,"forms":5565,"allah":5566,"lim":5567,"lian":5568,"mod":5569,"moi":5570,"mock":5571,"moder":5572,"wiki":5573,"whit":5574,"una":5575,"unt":5576,"kewl":5577,"weir":5578,"outlook":5579,"dod":5580,"dome":5581,"therapy":5582,"separ":5583,"usting":5584,"coco":5585,"costu":5586,"cel":5587,"withdra":5588,"nest":5589,"negle":5590,"canucks":5591,"laine":5592,"laura":5593,"irl":5594,"somethin":5595,"weed":5596,"pepper":5597,"immedi":5598,"usive":5599,"dex":5600,"device":5601,"bak":5602,"bake":5603,"baker":5604,"shh":5605,"shed":5606,"shann":5607,"naked":5608,"happier":5609,"happiest":5610,"poly":5611,"poster":5612,"pops":5613,"popped":5614,"taxi":5615,"knowledge":5616,"finan":5617,"ples":5618,"newcastle":5619,"feature":5620,"friggin":5621,"guilt":5622,"expo":5623,"explor":5624,"grew":5625,"sian":5626,"sized":5627,"reader":5628,"convo":5629,"concentr":5630,"twitting":5631,"sper":5632,"spare":5633,"spray":5634,"hopeful":5635,"inea":5636,"twitterville":5637,"kingdom":5638,"lux":5639,"saddest":5640,"india":5641,"tweeter":5642,"ousers":5643,"monster":5644,"monkey":5645,"waited":5646,"blew":5647,"blend":5648,"ffles":5649,"stops":5650,"stolen":5651,"typing":5652,"tyler":5653,"overcast":5654,"pac":5655,"papers":5656,"pasta":5657,"shouldnt":5658,"whoever":5659,"bugger":5660,"buffa":5661,"yeahhh":5662,"perform":5663,"accept":5664,"rules":5665,"downstairs":5666,"playin":5667,"hire":5668,"hibit":5669,"brb":5670,"brunch":5671,"starship":5672,"cara":5673,"longest":5674,"mothersday":5675,"bestie":5676,"icecream":5677,"lette":5678,"ughhhh":5679,"thankfully":5680,"filip":5681,"yearbook":5682,"proof":5683,"sooner":5684,"scrubs":5685,"awwwww":5686,"duh":5687,"dudes":5688,"stell":5689,"daw":5690,"marry":5691,"tracks":5692,"wolf":5693,"cutie":5694,"cutest":5695,"servers":5696,"zzi":5697,"pretend":5698,"discovered":5699,"blogs":5700,"blowing":5701,"guessing":5702,"bush":5703,"kinds":5704,"shaw":5705,"parti":5706,"els":5707,"singer":5708,"loaded":5709,"visible":5710,"jake":5711,"jazz":5712,"tennes":5713,"skate":5714,"skip":5715,"realy":5716,"realise":5717,"satis":5718,"beast":5719,"iii":5720,"-->":5721,"counts":5722,"reports":5723,"eaten":5724,"burgers":5725,"sentence":5726,"judd":5727,"kills":5728,"compared":5729,"python":5730,"camer":5731,"holic":5732,"freed":5733,"zealand":5734,"author":5735,"matthe":5736,"higher":5737,"flood":5738,"forgotten":5739,"bikes":5740,"deadline":5741,"signs":5742,"opened":5743,"sons":5744,"sucky":5745,"vip":5746,"clients":5747,"yyyyyy":5748,"dragon":5749,"dragged":5750,"cuppa":5751,"promised":5752,"yoga":5753,"touring":5754,"cheesy":5755,"boxes":5756,"calm":5757,"texted":5758,"blessings":5759,"simon":5760,"replying":5761,"reasons":5762,"spock":5763,"kore":5764,"docs":5765,"graduated":5766,"unfortunat":5767,"dresser":5768,"meetings":5769,"custom":5770,"alice":5771,"confusing":5772,"gardening":5773,"milksha":5774,"nature":5775,"aaaah":5776,"italy":5777,"metro":5778,"batman":5779,"oprah":5780,"babes":5781,"buddies":5782,"legit":5783,"vanilla":5784,"knocked":5785,"instant":5786,"mmmmm":5787,"mmmmmm":5788,"celebrity":5789,"arrival":5790,"puppies":5791,"practic":5792,"gigs":5793,"woods":5794,"peter":5795,"pulling":5796,"purse":5797,"pissing":5798,"virus":5799,"juss":5800,"techni":5801,"mentioned":5802,"ninten":5803,"tanning":5804,"addiction":5805,"mixed":5806,"eeeeeeeeeeeeeeee":5807,"honour":5808,"hollywood":5809,"impressive":5810,"windy":5811,"melbourne":5812,"belgi":5813,"dollar":5814,"bangs":5815,"turtle":5816,"data":5817,"datab":5818,"scheduled":5819,"martin":5820,"hayley":5821,"ships":5822,"tbh":5823,"biology":5824,"attacked":5825,"potter":5826,"claim":5827,"creek":5828,"sunburned":5829,"jersey":5830,"manager":5831,"generation":5832,"_a_":5833,"effing":5834,"writer":5835,"written":5836,"colour":5837,"crochet":5838,"econom":5839,"scot":5840,"scott":5841,"drummer":5842,"________":5843,"presso":5844,"pressure":5845,"mamas":5846,"anime":5847,"crown":5848,"advant":5849,"motiv":5850,"audition":5851,"username":5852,"psycho":5853,"flickr":5854,"mountains":5855,"convince":5856,"climbing":5857,"announce":5858,"announced":5859,"hiding":5860,"nursing":5861,"spinning":5862,"indiana":5863,"repeat":5864,"zombie":5865,"shattered":5866,"management":5867,"embarrass":5868,"pounds":5869,"sweden":5870,"yipp":5871,"thrilled":5872,"adventure":5873,"williams":5874,"appeared":5875,"medicine":5876,">.<":5877,"condition":5878,"sanctuarysunday":5879,"nuggets":5880,"yucky":5881,"technology":5882,"dedicated":5883,"ikea":5884,"burrito":5885,"ctose":5886,"farewell":5887,"junior":5888,"insurance":5889,"anxiety":5890,"sausage":5891,"michigan":5892,"stubborn":5893,"cycling":5894,"sympa":5895,"_the_":5896,"thunderstor":5897,"guilty":5898,"opinion":5899,"furniture":5900,"gallery":5901,"anthony":5902,"costume":5903,"buffalo":5904,"tennessee":5905,"!?!?!":5906,"):":5907,",.":5908,"04":5909,"1am":5910,"2b":5911,"2am":5912,"32":5913,"5pm":5914,"65":5915,"84":5916,"87":5917,"94":5918,":[":5919,"_f":5920,"_i":5921,"_y":5922,"_ha":5923,"_co":5924,"_ba":5925,"_guy":5926,"award":5927,"ahahaha":5928,"bg":5929,"bm":5930,"boooo":5931,"bster":5932,"bree":5933,"bbl":5934,"billy":5935,"cn":5936,"cp":5937,"clap":5938,"dor":5939,"drow":5940,"dash":5941,"dump":5942,"eva":5943,"emily":5944,"foo":5945,"fone":5946,"fter":5947,"g4":5948,"gth":5949,"glo":5950,"gil":5951,"gary":5952,"ggling":5953,"hk":5954,"hve":5955,"ilo":5956,"jj":5957,"jag":5958,"kee":5959,"kra":5960,"kris":5961,"lj":5962,"lates":5963,"mation":5964,"mandy":5965,"mami":5966,"mware":5967,"np":5968,"nba":5969,"nxt":5970,"ome":5971,"pw":5972,"pir":5973,"pere":5974,"pul":5975,"plast":5976,"pher":5977,"pump":5978,"rl":5979,"rer":5980,"sd":5981,"sne":5982,"srs":5983,"td":5984,"tall":5985,"twas":5986,"tended":5987,"u2":5988,"ui":5989,"uno":5990,"ule":5991,"uro":5992,"uum":5993,"wy":5994,"wth":5995,"wre":5996,"wut":5997,"wrest":5998,"yl":5999,"yee":6000,"thou":6001,"thas":6002,"inno":6003,"insu":6004,"inner":6005,"inspe":6006,"inju":6007,"incid":6008,"anxious":6009,"ert":6010,"tox":6011,"tone":6012,"toms":6013,"towel":6014,"ona":6015,"oning":6016,"rez":6017,"reat":6018,"renew":6019,"remin":6020,"reje":6021,"rels":6022,"relay":6023,"represent":6024,"ativity":6025,"ita":6026,"itas":6027,"orlando":6028,"stats":6029,"strep":6030,"stitch":6031,"methinks":6032,"hash":6033,"hawks":6034,"isy":6035,"eet":6036,"veni":6037,"ander":6038,"league":6039,"arth":6040,"aries":6041,"arian":6042,"engine":6043,"soso":6044,"soww":6045,"solid":6046,"chor":6047,"chrome":6048,"beck":6049,"beating":6050,"beloved":6051,"begins":6052,"essa":6053,"escape":6054,"espresso":6055,"loll":6056,"lover":6057,"liz":6058,"lily":6059,"uts":6060,"rocket":6061,"rogers":6062,"wif":6063,"wil":6064,"wives":6065,"etch":6066,"etsy":6067,"aline":6068,"wheel":6069,"und":6070,"unit":6071,"unity":6072,"unfollowed":6073,"tila":6074,"tiff":6075,"tierd":6076,"rix":6077,"riot":6078,"kevin":6079,"versity":6080,"domain":6081,"thern":6082,"lym":6083,"lyric":6084,"semi":6085,"among":6086,"ammed":6087,"cope":6088,"cobra":6089,"lda":6090,"nies":6091,"labe":6092,"laught":6093,"lappy":6094,"lactose":6095,"irish":6096,"abit":6097,"maa":6098,"somewhat":6099,"imm":6100,"icon":6101,"dew":6102,"dell":6103,"defo":6104,"default":6105,"bathing":6106,"shit":6107,"shri":6108,"shhh":6109,"yey":6110,"nack":6111,"nause":6112,"popping":6113,"sees":6114,"seemed":6115,"boiling":6116,"todayy":6117,"feeding":6118,"ishing":6119,"tai":6120,"romantic":6121,"****!!":6122,"owww":6123,"foc":6124,"cache":6125,"faire":6126,"factory":6127,"willing":6128,"muse":6129,"sack":6130,"safar":6131,"wales":6132,"wasting":6133,"ohio":6134,"comic":6135,"commen":6136,"comcast":6137,"guide":6138,"guinea":6139,"expi":6140,"express":6141,"grease":6142,"thinkin":6143,"weekly":6144,"plug":6145,"sia":6146,"sils":6147,"silver":6148,"item":6149,"contribut":6150,"fund":6151,"funni":6152,"twitts":6153,"needle":6154,"spy":6155,"joint":6156,"comet":6157,"mmer":6158,"twitterific":6159,"lasts":6160,"mikey":6161,"preju":6162,"pregn":6163,"presid":6164,"mornings":6165,"ques":6166,"phill":6167,"indy":6168,"chef":6169,"grin":6170,"sleepin":6171,"follows":6172,"ignoring":6173,"bled":6174,"stopping":6175,"betty":6176,"tonights":6177,"overall":6178,"overnight":6179,"mann":6180,"papa":6181,"paste":6182,"shoulda":6183,"gona":6184,"bueno":6185,"dizzy":6186,"reaction":6187,"reamed":6188,"themselves":6189,"acade":6190,"dyed":6191,"tryin":6192,"carl":6193,"viewed":6194,"applied":6195,"girly":6196,"letters":6197,"talks":6198,"ggies":6199,"shoe":6200,"shock":6201,"lists":6202,"nevermind":6203,"icky":6204,"scription":6205,"citiz":6206,"startrek":6207,"foreign":6208,"oool":6209,"trick":6210,"achie":6211,"marked":6212,"acts":6213,"selfish":6214,"tweetup":6215,"cleared":6216,"bites":6217,"breaks":6218,"cuts":6219,"display":6220,"placed":6221,"guessed":6222,"hardcore":6223,"tonsils":6224,"mushy":6225,"shared":6226,"checkin":6227,"famili":6228,"cud":6229,"parad":6230,"10pm":6231,"hott":6232,"listenin":6233,"sings":6234,"torn":6235,"trees":6236,"trum":6237,"trousers":6238,"sinus":6239,"ashes":6240,"boots":6241,"tennis":6242,"networking":6243,"stuffs":6244,"chai":6245,"piano":6246,"chores":6247,"aaaaaaa":6248,"cryin":6249,"minds":6250,"smashed":6251,"awk":6252,"whist":6253,"gnite":6254,"bbing":6255,"valid":6256,"prices":6257,"handy":6258,"bars":6259,"wears":6260,"horses":6261,"standards":6262,"ahhhhhh":6263,"charity":6264,"charming":6265,"fails":6266,"failure":6267,"career":6268,"chilly":6269,"hearts":6270,"imax":6271,"mitted":6272,"cooked":6273,"linux":6274,"midday":6275,"curve":6276,"curse":6277,"signal":6278,"layout":6279,"tubes":6280,"daniel":6281,"cupcake":6282,"gooood":6283,"!!!!!!!!!!":6284,"damn":6285,"yogur":6286,"pedic":6287,"brick":6288,"simply":6289,"completed":6290,"graduating":6291,"freak":6292,"laughs":6293,"gency":6294,"webcam":6295,"alie":6296,"milan":6297,"opti":6298,"rolls":6299,"rolling":6300,"pork":6301,"thai":6302,"knox":6303,"instru":6304,"popcorn":6305,"apartments":6306,"malay":6307,"bookstore":6308,"reminder":6309,"johnny":6310,"dryer":6311,"witness":6312,"touched":6313,"gory":6314,"kitties":6315,"projects":6316,"loop":6317,"stret":6318,"dmv":6319,"recorded":6320,"dealing":6321,"pets":6322,"squee":6323,"tumbl":6324,"fishing":6325,"wallet":6326,"purpose":6327,"educ":6328,"notebook":6329,"crashing":6330,"peaceful":6331,"spammers":6332,"80s":6333,"fatty":6334,"honor":6335,"commute":6336,"streets":6337,"impression":6338,"melted":6339,"dolls":6340,"dollars":6341,"deserved":6342,"apologies":6343,"cinnam":6344,"allergic":6345,"chelsea":6346,"snack":6347,"victori":6348,"refle":6349,"refuses":6350,"piggy":6351,"lovee":6352,"bonus":6353,"journal":6354,"considered":6355,"heroes":6356,"frog":6357,"jenny":6358,"colorado":6359,"folk":6360,"disneyland":6361,"aaaaaaaaaaaa":6362,"locations":6363,"performing":6364,"beyonce":6365,"cherry":6366,"distance":6367,"distractions":6368,"devast":6369,"situations":6370,"crushed":6371,"$$$":6372,"attending":6373,"suddenly":6374,"crowd":6375,"decisions":6376,"circus":6377,"jumping":6378,"louise":6379,"route":6380,"thumbs":6381,"logical":6382,"selena":6383,"discussion":6384,"employee":6385,"opera":6386,"lungs":6387,"pierced":6388,"lemme":6389,"sync":6390,"iloveyou":6391,"opport":6392,"zombies":6393,"greetings":6394,"confirmed":6395,"quarter":6396,"discovery":6397,"tampa":6398,"contract":6399,"prepare":6400,"smack":6401,"reckon":6402,"document":6403,"abandoned":6404,"snuggle":6405,"ridiculously":6406,"pamper":6407,"require":6408,"edinburgh":6409,"imagination":6410,"registered":6411,"nashville":6412,"tomato":6413,"wheres":6414,"counter":6415,"emergency":6416,"engagement":6417,"_benson":6418,"cisco":6419,"crawling":6420,"surrounded":6421,"tommorow":6422,"figuring":6423,"hawaii":6424,"filipino":6425,"juddday":6426,"freedom":6427,"matthew":6428,"nintendo":6429,"advantage":6430,"perez":6431,"srsly":6432,"sowwy":6433,"lyrics":6434,"safari":6435,"commence":6436,"prejudice":6437,"pregnant":6438,"academy":6439,"victoria":6440,"'-":6441,"(****":6442,"-.":6443,".?":6444,"07":6445,"0o":6446,"2night":6447,"22nd":6448,"37":6449,"67":6450,"600":6451,"630":6452,"6pm":6453,"98":6454,":*":6455,"?...":6456,"_z":6457,"_an":6458,"_and":6459,"_ra":6460,"_di":6461,"_girl":6462,"_mcfly":6463,"agh":6464,"aper":6465,"aight":6466,"ahah":6467,"aero":6468,"aaron":6469,"bli":6470,"bend":6471,"bart":6472,"bash":6473,"booooo":6474,"busted":6475,"cers":6476,"cage":6477,"dg":6478,"dup":6479,"dill":6480,"dges":6481,"ek":6482,"ez":6483,"equi":6484,"fits":6485,"font":6486,"git":6487,"gad":6488,"gna":6489,"glu":6490,"hb":6491,"hong":6492,"heeee":6493,"heee":6494,"iro":6495,"izz":6496,"jp":6497,"jones":6498,"kh":6499,"km":6500,"kle":6501,"kni":6502,"kia":6503,"knack":6504,"loooo":6505,"lbs":6506,"m8":6507,"mut":6508,"mps":6509,"mcr":6510,"nj":6511,"nth":6512,"nate":6513,"nana":6514,"oy":6515,"oll":6516,"ored":6517,"ody":6518,"olive":6519,"o_o":6520,"pis":6521,"patch":6522,"qld":6523,"sg":6524,"tink":6525,"tang":6526,"troo":6527,"uff":6528,"wag":6529,"x3":6530,"xy":6531,"xmen":6532,"yan":6533,"yeeee":6534,"yip":6535,"yaaaay":6536,"zim":6537,"zach":6538,"thr":6539,"thma":6540,"thick":6541,"inate":6542,"input":6543,"inten":6544,"infect":6545,"inbox":6546,"intention":6547,"infamous":6548,"erg":6549,"errr":6550,"tomy":6551,"towards":6552,"oni":6553,"..'":6554,"refer":6555,"remove":6556,"recess":6557,"reven":6558,"rebel":6559,"returning":6560,"ata":6561,"attics":6562,"itive":6563,"ittt":6564,"orders":6565,"sts":6566,"lls":6567,"meme":6568,"mead":6569,"meow":6570,"mega":6571,"melt":6572,"haa":6573,"hab":6574,"haw":6575,"hacked":6576,"hawk":6577,"nothings":6578,"nomen":6579,"andro":6580,"arrr":6581,"edly":6582,"edited":6583,"ened":6584,"envy":6585,"enthus":6586,"sob":6587,"soda":6588,"softw":6589,"chir":6590,"behave":6591,"beside":6592,"asp":6593,"ashi":6594,"assist":6595,"asthma":6596,"hog":6597,"holla":6598,"lore":6599,"gos":6600,"!!...":6601,"adop":6602,"formu":6603,"forgetting":6604,"former":6605,"alle":6606,"allen":6607,"lift":6608,"licious":6609,"ckle":6610,"rove":6611,"rosie":6612,"robert":6613,"mol":6614,"mot":6615,"motion":6616,"mowing":6617,"wiv":6618,"eter":6619,"etti":6620,"etime":6621,"hem":6622,"hectic":6623,"alter":6624,"whoops":6625,"unfollow":6626,"tiger":6627,"timing":6628,"ria":6629,"rian":6630,"rides":6631,"ripped":6632,"doe":6633,"domin":6634,"sequ":6635,"seaf":6636,"seven":6637,"amor":6638,"coat":6639,"cops":6640,"celon":6641,"upcoming":6642,"justice":6643,"nikk":6644,"ternal":6645,"worn":6646,"neat":6647,"neil":6648,"necess":6649,"canad":6650,"washer":6651,"laker":6652,"urge":6653,"urban":6654,"mai":6655,"mains":6656,"mailed":6657,"some1":6658,"weeee":6659,"pep":6660,"raw":6661,"rails":6662,"imp":6663,"ender":6664,"endless":6665,"decor":6666,"demons":6667,"likey":6668,"bast":6669,"ante":6670,"donnie":6671,"shan":6672,"shor":6673,"shire":6674,"yelled":6675,"morgan":6676,"nacho":6677,"pow":6678,"pover":6679,"polis":6680,"powers":6681,"agu":6682,"agen":6683,"agne":6684,"iff":6685,"ified":6686,"bots":6687,"bodies":6688,"teh":6689,"takin":6690,"tails":6691,"tacos":6692,"romance":6693,"owl":6694,"owner":6695,"onge":6696,"muah":6697,"feat":6698,"sail":6699,"frickin":6700,"offf":6701,"offline":6702,"combo":6703,"extend":6704,"exhibit":6705,"external":6706,"plat":6707,"plate":6708,"homeless":6709,"??!":6710,"umbre":6711,"conver":6712,"consu":6713,"concre":6714,"contem":6715,"conveni":6716,"twitt":6717,"spit":6718,"sponge":6719,"hopeless":6720,"joey":6721,"ulation":6722,"lasted":6723,"aaah":6724,"kings":6725,"migr":6726,"luke":6727,"prepar":6728,"quilt":6729,"procra":6730,"prolly":6731,"prosper":6732,"woulda":6733,"phan":6734,"philo":6735,"cheaper":6736,"wns":6737,"sorta":6738,"tweeties":6739,"ously":6740,"mond":6741,"mony":6742,"monica":6743,"mayb":6744,"manual":6745,"pacity":6746,"whom":6747,"studied":6748,"perman":6749,"headin":6750,"acc":6751,"harm":6752,"bedroom":6753,"tryna":6754,"berg":6755,"berlin":6756,"ciara":6757,"playoff":6758,"bran":6759,"carto":6760,"apples":6761,"minne":6762,"minim":6763,"madre":6764,"maddie":6765,"brody":6766,"answers":6767,"omj":6768,"supris":6769,"supply":6770,"ggers":6771,"ggage":6772,"listic":6773,"prit":6774,"printer":6775,"printed":6776,"cities":6777,"dual":6778,"sickness":6779,"cooler":6780,"hurray":6781,"international":6782,"voc":6783,"volu":6784,"stevie":6785,"davis":6786,"march":6787,"maria":6788,"margar":6789,"actress":6790,"tragic":6791,"zzes":6792,"disk":6793,"dislike":6794,"disgust":6795,"disappeared":6796,"birming":6797,"warren":6798,"sitter":6799,"crawl":6800,"tones":6801,"rooting":6802,"roots":6803,"cue":6804,"cured":6805,"cubs":6806,"parade":6807,"win7":6808,"101":6809,"loading":6810,"gods":6811,"booth":6812,"lighter":6813,"skill":6814,"skool":6815,"skint":6816,"postpon":6817,"musicmonday":6818,"menu":6819,"photoshoot":6820,"eatin":6821,"theirs":6822,"drinkin":6823,"soooooooo":6824,"planet":6825,"hehehehe":6826,"moves":6827,"rested":6828,"restri":6829,"compan":6830,"bbie":6831,"vaca":6832,"valent":6833,"pril":6834,"barcelon":6835,"aska":6836,"matters":6837,"pug":6838,"highlight":6839,"charm":6840,"12th":6841,"careless":6842,"chillax":6843,"flyer":6844,"hmmmm":6845,"quizzes":6846,"create":6847,"creating":6848,"sens":6849,"drives":6850,"steady":6851,"sonny":6852,"mp3":6853,"passing":6854,"twist":6855,"twisted":6856,"vibes":6857,"clicked":6858,"loner":6859,"rocky":6860,"rockin":6861,"vention":6862,"!!!!!!!!!!!!":6863,"favorites":6864,"boxing":6865,"brief":6866,"easily":6867,"relaxin":6868,"relaxation":6869,"2000":6870,"spoil":6871,"panera":6872,"chocolates":6873,"smiley":6874,"seasons":6875,"massa":6876,"archie":6877,"archule":6878,"numb":6879,"...........":6880,"natalie":6881,"metall":6882,"prayer":6883,"effin":6884,"hahahahahahahaha":6885,"legend":6886,"surprises":6887,"patron":6888,"pattern":6889,"ordering":6890,"fabric":6891,"guts":6892,"ports":6893,"vacuum":6894,"anned":6895,"fuzz":6896,"rrrrrrrr":6897,"holds":6898,"heather":6899,"heaps":6900,"expert":6901,"reminding":6902,"dvds":6903,"inviting":6904,"loosing":6905,"susan":6906,"18th":6907,"kyle":6908,"sticker":6909,"sumthin":6910,"jackman":6911,"experien":6912,"experiment":6913,"casa":6914,"cases":6915,"casino":6916,"flower":6917,"banquet":6918,"digging":6919,"fying":6920,"hmv":6921,"thrown":6922,"tango":6923,"roads":6924,"shifts":6925,"addict":6926,"spamming":6927,"eeeeeeeeeee":6928,"randomly":6929,"honored":6930,"recommendation":6931,"recommendations":6932,"festiv":6933,"included":6934,"belated":6935,"dollhouse":6936,"grilled":6937,"kudos":6938,"havnt":6939,"refuse":6940,"hayfever":6941,"exhausting":6942,"balance":6943,"loveeee":6944,"programme":6945,"brandon":6946,"claire":6947,"leads":6948,"magical":6949,"captain":6950,"capital":6951,"jerry":6952,"softball":6953,"speakers":6954,"prince":6955,"auntie":6956,"karao":6957,"effed":6958,"robin":6959,"coughing":6960,"tisdale":6961,"stalking":6962,"stalker":6963,"writers":6964,")))":6965,"cooper":6966,"coolest":6967,"pushing":6968,"pushed":6969,"cabin":6970,"tags":6971,"origins":6972,"idiots":6973,"devon":6974,"suffer":6975,"neighborhood":6976,"jesse":6977,"ignored":6978,"nooooooo":6979,"strike":6980,"queens":6981,"????????????????":6982,"entertainment":6983,"whoop":6984,"html":6985,"delhi":6986,"appropri":6987,"oooooooooooooooooooooooooooooooo":6988,"selected":6989,"employed":6990,"smoothie":6991,"operation":6992,"relief":6993,"lifes":6994,"sheets":6995,"communic":6996,"nurse":6997,"replacement":6998,"medium":6999,"crisis":7000,"sweaty":7001,"repeated":7002,"artists":7003,"regretting":7004,"oppo":7005,"pineapple":7006,"rupt":7007,"sniffle":7008,"vinegar":7009,"liverpool":7010,"muffins":7011,"physically":7012,"mushroom":7013,"teenagers":7014,"culture":7015,"gaming":7016,"murder":7017,"nvm":7018,"nvr":7019,"phase":7020,"adventures":7021,"broadband":7022,"cereal":7023,"rabbit":7024,"wango":7025,"thirty":7026,"rehearsal":7027,"regarding":7028,"assume":7029,"mozart":7030,"shuffle":7031,"politics":7032,"sneezing":7033,"electri":7034,"ketic":7035,"phenomen":7036,"nightmares":7037,"subscribe":7038,"translation":7039,"daft":7040,"hiccups":7041,"material":7042,"sticks":7043,"adium":7044,"professional":7045,"relationships":7046,"investig":7047,"vegetarian":7048,"buffet":7049,"accomplished":7050,"audience":7051,"traditional":7052,"basketball":7053,"particularly":7054,"category":7055,"crunch":7056,"ftsk":7057,"sprink":7058,"industry":7059,"carolina":7060,"blonde":7061,"compliment":7062,"portugal":7063,"neighbours":7064,"wendy":7065,"toilet":7066,"stunning":7067,"ashamed":7068,"modern":7069,"separate":7070,"immediately":7071,"bakery":7072,"shannon":7073,"financial":7074,"concentrate":7075,"korean":7076,"unfortunatly":7077,"milkshake":7078,"practically":7079,"motivated":7080,"sneak":7081,"inspection":7082,"injured":7083,"laughter":7084,"expired":7085,"president":7086,"achieve":7087,"familiar":7088,"awkward":7089,"yogurt":7090,"tumblr":7091,"cinnamon":7092,"devastated":7093,"intentionally":7094,"recession":7095,"revenge":7096,"software":7097,"seafood":7098,"necessary":7099,"nachos":7100,"umbrella":7101,"procrast":7102,"philosoph":7103,"birmingham":7104,"postponed":7105,"barcelona":7106,"archuleta":7107,"karaoke":7108,"')":7109,")!":7110,"*.":7111,"*~":7112,"/\\":7113,"01":7114,"34":7115,"3g":7116,"3word":7117,"3000":7118,"44":7119,"66":7120,"71":7121,"77":7122,"85":7123,"86":7124,"97":7125,"9th":7126,"900":7127,";(":7128,";;":7129,"<--":7130,"?,":7131,"@-)":7132,"_1":7133,"_p":7134,"_er":7135,"_ch":7136,"_of":7137,"_li":7138,"_jo":7139,"_wo":7140,"_mc":7141,"_uk":7142,"_19":7143,"_supernatural":7144,"_skies":7145,"aj":7146,"aay":7147,"amo":7148,"awa":7149,"aster":7150,"amen":7151,"aire":7152,"april":7153,"bis":7154,"bry":7155,"bwa":7156,"blist":7157,"boooooo":7158,"cld":7159,"cba":7160,"css":7161,"cart":7162,"chard":7163,"cds":7164,"cult":7165,"cription":7166,"dl":7167,"dw":7168,"das":7169,"dere":7170,"dion":7171,"dah":7172,"dough":7173,"dred":7174,"dsl":7175,"dms":7176,"dull":7177,"dooo":7178,"dding":7179,"ditch":7180,"eth":7181,"ego":7182,"elle":7183,"fis":7184,"ffe":7185,"fie":7186,"fang":7187,"flip":7188,"gli":7189,"gab":7190,"gus":7191,"gnight":7192,"gate":7193,"gent":7194,"goooooooo":7195,"gahh":7196,"gooooo":7197,"gurl":7198,"gmt":7199,"hil":7200,"hooo":7201,"hint":7202,"hence":7203,"hana":7204,"iq":7205,"ito":7206,"ido":7207,"itouch":7208,"js":7209,"jar":7210,"jas":7211,"jill":7212,"jah":7213,"jade":7214,"kt":7215,"kon":7216,"kry":7217,"kah":7218,"kil":7219,"kard":7220,"kath":7221,"l8":7222,"lted":7223,"looooo":7224,"latte":7225,"mand":7226,"mour":7227,"mph":7228,"mraz":7229,"n1":7230,"nina":7231,"nano":7232,"oi":7233,"oou":7234,"oct":7235,"otic":7236,"ology":7237,"olym":7238,"pb":7239,"pand":7240,"pli":7241,"pus":7242,"pile":7243,"plot":7244,"pended":7245,"qi":7246,"ql":7247,"qht":7248,"rb":7249,"rt":7250,"rors":7251,"sic":7252,"shad":7253,"swin":7254,"slap":7255,"snick":7256,"snoring":7257,"tc":7258,"tg":7259,"tank":7260,"ua":7261,"ured":7262,"witch":7263,"ym":7264,"yt":7265,"ycle":7266,"zie":7267,"zard":7268,"ths":7269,"thaa":7270,"thouse":7271,"threat":7272,"init":7273,"inte":7274,"ints":7275,"ination":7276,"invent":7277,"inform":7278,"indoors":7279,"index":7280,"invisible":7281,"antha":7282,"erm":7283,"oured":7284,"onee":7285,"rend":7286,"requ":7287,"relate":7288,"repla":7289,"removed":7290,"remix":7291,"reinstall":7292,"reschedule":7293,"reference":7294,"reunion":7295,"itute":7296,"orary":7297,"stro":7298,"stam":7299,"stable":7300,"stances":7301,"llo":7302,"meta":7303,"haaa":7304,"eek":7305,"eez":7306,"ooc":7307,"oop":7308,"vey":7309,"vend":7310,"veggie":7311,"noone":7312,"nold":7313,"nola":7314,"andre":7315,"andra":7316,"leop":7317,"lecture":7318,"argu":7319,"ario":7320,"edown":7321,"eddie":7322,"edition":7323,"enna":7324,"enger":7325,"envir":7326,"enix":7327,"soa":7328,"sox":7329,"soy":7330,"soak":7331,"soap":7332,"chil":7333,"dayyyy":7334,"below":7335,"belle":7336,"becuz":7337,"belt":7338,"ases":7339,"asian":7340,"esca":7341,"hopp":7342,"hoped":7343,"lolol":7344,"logi":7345,"lobby":7346,"login":7347,"logging":7348,"lobster":7349,"!!)":7350,"ading":7351,"adem":7352,"adap":7353,"advan":7354,"format":7355,"allll":7356,"alllll":7357,"lik":7358,"lill":7359,"liqu":7360,"lips":7361,"ckles":7362,"ckeez":7363,"utz":7364,"utah":7365,"ros":7366,"roit":7367,"roblu":7368,"roses":7369,"moan":7370,"mosh":7371,"molly":7372,"heater":7373,"heyyy":7374,"alt":7375,"aling":7376,"alge":7377,"alaska":7378,"wht":7379,"whin":7380,"whooo":7381,"unlike":7382,"unexpected":7383,"timore":7384,"rig":7385,"rican":7386,"ridge":7387,"keith":7388,"kellie":7389,"weal":7390,"weigh":7391,"outs":7392,"doggy":7393,"thers":7394,"therine":7395,"lyk":7396,"sean":7397,"section":7398,"sewing":7399,"ampo":7400,"amster":7401,"ambi":7402,"ides":7403,"coincid":7404,"terry":7405,"terms":7406,"worm":7407,"neuro":7408,"notting":7409,"labor":7410,"lacking":7411,"laud":7412,"laurie":7413,"aba":7414,"abby":7415,"urself":7416,"mali":7417,"maps":7418,"macar":7419,"maker":7420,"maui":7421,"goodies":7422,"peer":7423,"peas":7424,"rack":7425,"raise":7426,"raises":7427,"ryl":7428,"workshop":7429,"impro":7430,"improve":7431,"impatient":7432,"usday":7433,"icy":7434,"icar":7435,"icons":7436,"dez":7437,"decl":7438,"delight":7439,"detox":7440,"gotcha":7441,"suic":7442,"ille":7443,"donuts":7444,"shy":7445,"shite":7446,"shield":7447,"nae":7448,"napping":7449,"poke":7450,"posh":7451,"potle":7452,"poker":7453,"seee":7454,"agg":7455,"agan":7456,"ager":7457,"aging":7458,"boi":7459,"bom":7460,"bold":7461,"bolt":7462,"hahaa":7463,"issa":7464,"taught":7465,"tasty":7466,"any1":7467,"twent":7468,"****'":7469,"****..":7470,"missy":7471,"backround":7472,"backyard":7473,"capacity":7474,"....!":7475,"newborn":7476,"iem":7477,"sac":7478,"sacra":7479,"safter":7480,"fricken":7481,"wai":7482,"wax":7483,"waaaaay":7484,"ohhhhh":7485,"comb":7486,"guin":7487,"guild":7488,"excl":7489,"explan":7490,"exited":7491,"erson":7492,"ndrome":7493,"!!!...":7494,"plee":7495,"homes":7496,"entation":7497,"entina":7498,"cons":7499,"contain":7500,"concept":7501,"sphere":7502,"gem":7503,"jose":7504,"joking":7505,"ults":7506,"twittered":7507,"twitterers":7508,"twitterworld":7509,"everyones":7510,"herself":7511,"slammed":7512,"wished":7513,"lucas":7514,"luggage":7515,"sadden":7516,"precious":7517,"qua":7518,"quad":7519,"quali":7520,"propo":7521,"phon":7522,"indie":7523,"indul":7524,"sorting":7525,"gru":7526,"grant":7527,"grumble":7528,"hhrs":7529,"montre":7530,"sunset":7531,"bleach":7532,"mayer":7533,"affect":7534,"overtime":7535,"overcome":7536,"mans":7537,"manly":7538,"showers":7539,"bugging":7540,"built":7541,"dian":7542,"dito":7543,"digest":7544,"reached":7545,"perry":7546,"percent":7547,"acct":7548,"derby":7549,"downside":7550,"berra":7551,"stern":7552,"playlist":7553,"yesss":7554,"yesssss":7555,"hiber":7556,"hips":7557,"iley":7558,"assing":7559,"caring":7560,"carni":7561,"carrie":7562,"tues":7563,"tutori":7564,"glut":7565,"gloom":7566,"babyy":7567,"girlie":7568,"litter":7569,"mson":7570,"msgs":7571,"bestfriend":7572,"reel":7573,"earn":7574,"earphones":7575,"gather":7576,"gawd":7577,"omgosh":7578,"fired":7579,"fiance":7580,"callin":7581,"ggas":7582,"listing":7583,"prise":7584,"scroll":7585,"tions":7586,"forecast":7587,"hub":7588,"hugged":7589,"coup":7590,"coura":7591,"courage":7592,"volley":7593,"triple":7594,"tricky":7595,"daws":7596,"marc":7597,"breast":7598,"yaay":7599,"serve":7600,"sidewalk":7601,"sidekick":7602,"eeeeep":7603,"disc":7604,"discoura":7605,"clothing":7606,"warped":7607,"blown":7608,"blogger":7609,"teddy":7610,"harddrive":7611,"cracked":7612,"cracking":7613,"shaun":7614,"fami":7615,"roomies":7616,"kidd":7617,"bloo":7618,"bliss":7619,"amazingly":7620,"wins":7621,"10am":7622,"sounded":7623,"torture":7624,"tres":7625,"trent":7626,"treats":7627,"trampo":7628,"jean":7629,"jelly":7630,"desig":7631,"desire":7632,"desperate":7633,"booz":7634,"booze":7635,"lightning":7636,"visa":7637,"jacked":7638,"birthdays":7639,"sweethe":7640,"sweety":7641,"sweetest":7642,"anky":7643,"tenance":7644,"skl":7645,"skir":7646,"hungover":7647,"hundred":7648,"mento":7649,"phoenix":7650,"emma":7651,"bea09":7652,"chose":7653,"choir":7654,"mighty":7655,"corpor":7656,"cran":7657,"crit":7658,"crab":7659,"crane":7660,"freezer":7661,"bumps":7662,"bumped":7663,"messy":7664,"messing":7665,"messenger":7666,"colds":7667,"superman":7668,"superstar":7669,"walks":7670,"smash":7671,"fron":7672,"cleaner":7673,"surf":7674,"survi":7675,"planes":7676,"landed":7677,"pains":7678,"addition":7679,"dreambears":7680,"juz":7681,"cyber":7682,"bbies":7683,"xox":7684,"chip":7685,"chipotle":7686,"prima":7687,"prize":7688,"syndrome":7689,"barack":7690,"personality":7691,"merch":7692,"mature":7693,"matrix":7694,"puke":7695,"grave":7696,"grape":7697,"grapes":7698,"gravity":7699,"grapher":7700,"ahhhhhhh":7701,"ahhhhhhhh":7702,"versions":7703,"yumm":7704,"careful":7705,"chillen":7706,"ako":7707,"cooker":7708,"lincol":7709,"curly":7710,"curry":7711,"curren":7712,"falls":7713,"dane":7714,"laptops":7715,"passion":7716,"twiiter":7717,"viet":7718,"anatomy":7719,"viewing":7720,"rockstar":7721,"draft":7722,"cellphone":7723,"denny":7724,"denmark":7725,"denial":7726,"maccy":7727,"damm":7728,"damned":7729,"closest":7730,"perfectly":7731,"fluffy":7732,"burns":7733,"styles":7734,"15th":7735,"fairly":7736,"brigh":7737,"calor":7738,"itchy":7739,"solution":7740,"simps":7741,"strate":7742,"spoiled":7743,"showered":7744,"koi":7745,"graduates":7746,"coursework":7747,"dropping":7748,"gasp":7749,"entering":7750,"enterprise":7751,"webcast":7752,"cents":7753,"dangit":7754,"align":7755,"confid":7756,"xxxxxx":7757,"pizzas":7758,"moods":7759,"benef":7760,"tourist":7761,"absolut":7762,"roller":7763,"albums":7764,"teachers":7765,"greenville":7766,",,,,":7767,"kicks":7768,"patio":7769,"patrick":7770,"kickin":7771,"salon":7772,"salary":7773,"salvation":7774,"teehee":7775,"hindi":7776,"samantha":7777,"rrrrrrr":7778,"knitting":7779,"basic":7780,"produce":7781,"dvr":7782,"disappoint":7783,"xoxox":7784,"celebrated":7785,"fitness":7786,"scaring":7787,"arriving":7788,"smaller":7789,"ists":7790,"hosting":7791,"hosted":7792,"hostage":7793,"healing":7794,"suspended":7795,"modem":7796,"direction":7797,"directions":7798,"director":7799,"directory":7800,"sticking":7801,"tires":7802,"value":7803,"sum1":7804,"167":7805,"16th":7806,"wallpaper":7807,"respons":7808,"casion":7809,"heehee":7810,"purchase":7811,"diesel":7812,"breed":7813,"technic":7814,"browsing":7815,"flights":7816,"eventful":7817,"digg":7818,"guna":7819,"ireland":7820,"throwing":7821,"nicky":7822,"chances":7823,"voicemail":7824,"crime":7825,"ssssss":7826,":')":7827,"command":7828,"recommended":7829,"detroit":7830,"occup":7831,"occasion":7832,"melting":7833,"succes":7834,"volution":7835,"deserves":7836,"bottles":7837,":-/":7838,"suggestion":7839,"martini":7840,"victory":7841,"inspire":7842,"maintenance":7843,"shipped":7844,"baltimore":7845,"cruel":7846,"cruising":7847,"kayla":7848,"loveee":7849,"spelled":7850,"attacking":7851,"necklace":7852,"continues":7853,"knees":7854,"australian":7855,"speaker":7856,"lambert":7857,"ironing":7858,"pointing":7859,"printing":7860,"toothache":7861,"stones":7862,"scram":7863,"generally":7864,"basement":7865,"peek":7866,"statement":7867,"laser":7868,"activity":7869,"bruce":7870,"bruised":7871,"hughes":7872,"ronic":7873,"zack":7874,"colum":7875,"clearly":7876,"zzzzzzzz":7877,"flav":7878,"whack":7879,"devil":7880,"babysit":7881,"priceless":7882,"miserably":7883,"oceans":7884,"dependent":7885,"excite":7886,"eurovision":7887,"recovery":7888,"tempted":7889,"temporary":7890,"presence":7891,"33333":7892,"washington":7893,"mamma":7894,"slave":7895,"itors":7896,"bradie":7897,"approaching":7898,"responding":7899,"27th":7900,"grove":7901,"jumped":7902,"obsession":7903,"routine":7904,"retro":7905,"registr":7906,"researching":7907,"struggling":7908,"planted":7909,"mistakes":7910,"ffffffff":7911,"tattoos":7912,"48hours":7913,"tuned":7914,"asylum":7915,"lifetime":7916,"sheet":7917,"sheesh":7918,"stephen":7919,"frankie":7920,"luna":7921,"individ":7922,"crisps":7923,"gained":7924,"forums":7925,"champion":7926,"champagne":7927,"pjs":7928,"sniff":7929,"source":7930,"hacker":7931,"mosqui":7932,"terribly":7933,"physics":7934,"accepting":7935,"francisco":7936,"teenager":7937,"attempts":7938,"aloha":7939,"caffe":7940,"guests":7941,"confirmation":7942,"granny":7943,"ceremony":7944,"cigare":7945,"refreshing":7946,"bacter":7947,"complaining":7948,"iiiiiiiiiiiiiiii":7949,"fifteen":7950,"split":7951,"argentina":7952,"width":7953,"documents":7954,"polish":7955,"explode":7956,"bicycle":7957,"false":7958,"pouting":7959,"attractive":7960,"pearl":7961,"calend":7962,"functioning":7963,"publish":7964,"humidity":7965,"relationship":7966,"fascin":7967,"gooooood":7968,"pfft":7969,"srry":7970,"insomni":7971,"insomnia":7972,"assemb":7973,"upgraded":7974,"upgrades":7975,"greece":7976,"mariah":7977,"multiple":7978,"africa":7979,"h1n1":7980,"pumped":7981,"yaaay":7982,"thousands":7983,"rescue":7984,"stanley":7985,"veronica":7986,"coworker":7987,"spaces":7988,"diplo":7989,"bittersweet":7990,"priority":7991,"strangers":7992,"brittany":7993,"invitation":7994,"suspect":7995,"disturbed":7996,"_127":7997,"dessert":7998,"linda":7999},"merges":["t h","i n","a n","e r","t o","o u","in g","o n",". .","r e","a t","th e","i t","o r","s t","l l","m e","h a","i s","a y","e e","o o","v e","n o","y ou","m y","an d","l e","a r","e d","e n","s o","c h","d ay","b e","a s","e s","h o","l o","g o","g h","! !","a d","f or","o f","a ll",".. .","l i","c k","u t","r o","m o","w i","e t","h e","a l","w h","* *","u n","th at","t i","r i","k e","gh t","w e","v er","ou t","d o","th er","ha ve","on e","l y","s e","a m","i d","u st","c o","no w","l d","c e","u p","b ut","j ust","n i","t er","w or","wi th","oo d","p p","n e","c an","w as","g et","no t","l a","a re","i r","a b","u r","m a","so me","g ood","w ee","p e","r a","all y","r y","wor k","i m","u s","ou ld","th is","i c","en d","lo ve","ni ght","d e","er e","go t","s u","i ll","li ke","b a","an t","n t","d on","th an","to o","s h","y e","k s","m or","n a","at e","ti me","th ing","R L","U RL","ho w","you r","ha pp","p o","s ee","a g","i f","s s","in k","b o","to day","ha ha","is s","f ee","t e","ver y","wh at","is h","t a","go ing","ro m","an y","t w","** **","w ay","lo l","k now","m iss","i on","o w","t ing","ba ck","f in","f o","happ y","c a",".. ..","f rom","w ant","oo k","f a","p le","ne w","n ing","on g","ee p","wi ll","m u","f e","ou r","it s","d id","i e","s a","ther e","a h","fee l","f ri","re ally","of f","w a","o h","co m","ar t","g u","e x","er s","g re","ab out","th ink","wee k","n d","!! !","ha d","at ch","p l","mo ther","s i","mo re","ho me","a in","ee d","the y","c t","re ad","? ?","en t","i l","u m","we ll","ou gh","it e","w w","c on","f un","oo l","tw it","re d","ro w","v ing","n eed","s p","ho pe","in e","g e","st ill","wh en","mu ch","w atch","j o","than ks","h ere","t s","co me","u l","ou nd","m m","twit ter","la st","e very","es s","a a","h er","s l","ha s","gre at","k ing","w ish","oo oo","ar d","ee n","m i","l u","s ad","e ve","p re","mor ning","b y","q u","p ro","w ould","u se","p h","in d","ch e","s he","w n","ll ow","b een","l ook","s or","fri end","the n","ri ght","g r","h h","mo m","sl eep","c ould","to mor","fo llow","id e","t wee","ou s","i g","m on","s un","w on","ag ain","tomor row","wa it","b le","!! !!","wh y","f f","s ay","b ad","on ly","o ther","m ay","s to","a f","t y","at ion","be t","to night","sor ry","o ver","read y","m an","p a","th ough","s how","x t","sh ould","g on","w ho","b u","ma ke","d i","st u","ni ce","o k","ye ah","re a","p er","he ad","the m","a c","gon na","r u","p ic","ha r","d er","d y","b ed","t ry","do wn","b er","ra in","bet ter","s ch","day s","week end","i ve","le a","t le","c i","me nt","st er","y s","pl ay","an g","ca use","y es","do es","i es","get ting","af ter","h i","l f","as e","pe o","b r","i le","peo ple","st ar","as s","p s","n y","c ar","0 0","h our","v ie","a pp","ck s","l ong","sch ool","a we","th o","y y","ne xt","mother s","t u","wh ere","g l","b ab","g ir","w ere","did n","m in","p art","l it","m s","m ad","h im","be st","watch ing","i ce","awe some","re e","don t","gir l","e ar","ou ght","ph one","g a","le t","b ro","u gh","an s","than k","o m","f i","k es","am a","h ate","s up","c all","t al","ye ar","he y","g g","eve n","s ho","li st","ne ver","an na","p r","h is","u ll","so on","mo st","i ck","s c","ha ving","lit tle","ti on","way s","a ww","c it","d r","d u","work ing","st art","su re","ag e","at er","be ing","fo re","f ir","w r","h u","p ut","li ve","si ck","f t","c ou","c ool","li fe","e ver","h ur","in ter","l ate","ta ke","ou se","oo o","v o","t ri","at ing","can t","b ook","st e","c l","d one","a ch","fir st","d a","m ar","ti red","every one","a ct","se lf","twee t","c le","feel ing","t ra","do ing","w o","friend s","b it","z ing","be cause","b rea","fin d","ple ase","k eep","ti l","jo y","c ut","oo ks","hour s","h ouse","y a","mo vie","al ways","f ul","w anna","y ay","an other","ur n","s er","o ld","ab le","fri day","al ready","mad e","s ong","gu ys","z z","f ull","n er","or t","re am","s ide","r r","some thing","b ig","pre t","ee ee","d is","lu ck","th ought","c lo","b ir","w ar","he ll","y et","s it","try ing","e st","b lo","p la","be fore","he l","gu ess","t ed","u ally","in to","en joy","har d","c ra","te ll","a way","to n","pret ty","b us","g s","k ind","m us","fin ally","look ing","s ha","che ck","f am","lo t","r oo","sa me","k id","w ent","c u","p ar","he ar","may be","e l","r un","le ft","? !","i ly","b l","ama zing","w in","su cks","time s","1 0","w ard","wh ile","w ow","ho t","mon day","list en","un ch","le ss","om g","s ing","l ooks","s ound","to r","fin ish","ex cit","does n","some one","al so","at ed","ha ir","thing s","t re","hel p","t r","lo ad","brea k","g ive","i ous","j e","le s","tho se","d ing","an ce","happ en","go d","miss ed","jo b","d ri","s in","as h","wor ld","bo red","d es","x x","tw o","p t","sa id","com ing","tal k","sa w",".. ...","fa ce","b oo","s pe","lo w","li ght","v is","no thing","ear ly","it y","we a","j a","bir th","c er","s wee","bab y","part y","act ually","l ater","an k","t en","s k","l ine","gl ad","d s","won der","po st","mus ic","d d","an ge","3 0","h un","n et","re al","stu ff","c ha","me n","ga me","birth day","p ho","s et","me et","p en","un til","bo dy","m ber","p i","su ch","ye ster","po or","s at","yester day","e m","g er","be a","b or","ar ound","su mm","is e","g one","ti ll","wea ther","d in","t urn","st ay","ch o","lo st","f ar","i i","i o","m any","one y","ma kes","we l","sin ce","mi ght","f ound","m ust","z y","got ta","that s","excit ed","c or","at s","me an","my self","fa st","ck ed","wa ke","aa aa","summ er","b la","c r","c ry","f ree","m ind","u re","tu re","wait ing","pho to","- -","b um","as on","any thing","lea st","cl ass","me ss","co ld","pp ing","haha ha","fe w","cou nt","c of","l unch","to p","a st","at es","bo y","d ad","ma king","sup er","fam ily","roo m","t ru","re p","re ss","al most","b s","lea ve","w er","i a","w al","mon th","sun day","s m","f r","pla ce","a w","e at","f er","r ough","cof fee","p ers","the ir","be li","cle an","s ur","to t","un der","sto p","pic ture","dr ink","fa v","any one","g y","k ed","ma il","bu y","full y","bea ut","b ur","p ing","in t","wh i","s oooo","st up","with out","t v","w ed","ck et","na me","think ing","pl an","hur ts","stup id","m oney","for ward","every thing","wel come","tot ally","m ine","v ide","on es","us ed","beli eve","l and","is n","fun ny","sound s","p ain","miss ing","?? ??","cut e","vide o","; )","k en","t t","th rough","ad d","he he","f ood","mo ve","a ce","s ent","if ul","listen ing","c tion","finish ed","re st","ex am","d ream","gr ad","play ing","whi ch","a go","j u","k ill","com p","din ner","beaut iful","g n","s ed","le y","en ce","have n","want ed","pro bab","swee t","c y","b b","probab ly","p y","x o","up d","c am","v a","me d","ho li","te st","ok ay","b all","c es","h ang","ch i","f re","p ri","t in","who le","s end","are nt","a che","h and","z e","follow ers","a u","h it","n or","s y","re me","the se","out side","pp ed","was n","min ut","wo ke","kid s","b ar","e ating","p ort","w s","it ing","ll e","as k","mu m","did nt","n ess","en ough","see n","ar y","pers on","m er","u u","we ar","love ly","ci al","h or","m at","s ooo","oo t","wee ks","want s","f an","n n","ar n","bo th","ca me","pre ss","say s","g i","l s","p u","st and","g ra","too k","ah hh","?? ?","in s","for t","ver s","hi gh","el se","f l","i ther","for got","ow n","war s","kind a","c har","off ice","pro ble","c lu","ck ing","fa il","fe ct","reme mber","a ir","good night","any more","year s","aww w","1 2","n ite","y um","ro ss","ti c","ta king","get s","love d","gu y","wr ong","sat ur","c are","j on","k k","stu ck","ee e","un e","mom s","follow ing","inter net","ch ill","hope fully","he art","al s","satur day","d if","f ly","i ma","de c","ag es","a k","b ank","c atch","h mm","m it","v id","ch ange","ti cket","sho pping","hell o","bus y","3 3","b i","c ook","on line","ll y","com put","qu i","twee ts","l in","l ad","m id","do g","de ad","head ache","rain ing","bro ther","sup po","cra zy","b ye","c ur","f all","lo ts","could n","2 0","b and","c re","c ong","e p","s en","v in","on ce","si gn","sit ting","cu z","bla ck","l ay","o pen","r s","see ms","ide a","tu be","bro ke","dri ve","holi day","d an","p m","sp end","ste ad","cong r","s on","st ra","ha lf","con cer","call ed","ser ious","c ard","su ck","qu ite","mom my","c our","e ither","m p","al one","new s","stu dy","blo g","c ess","to wn","st a","la p","oooo oooo","tri p","tri ed","tre k","s ou","s oo","gr and","tal king","du de","a wake","p ass","r ing","s w","t wi","u ght","v i","an a","de fin","watch ed","vie w","c li","l on","s low","ro ck","ne y","see ing","won t","yy yy","face book","1 1","d ra","i phone","l ma","ce ll","us h","br ing","girl s","sc re","minut es","c at","c up","d en","e mail","in stead","he ard","feel s","hun g","tru e","g le","l ing","l or","m c","ri ed","sh ort","eve ning","ation s","luck y","g oo","s n","w oo","ve n","ma c","ate ly","!!!! !!!!","star ting","hur t","break fast","fav or","comput er","b tw","d am","s ite","co ver","ww w","cit y","inter est","clo se","lma o","p ay","p rom","p ick","y o","th in","you tube","per fect","f lu","p ed","mo ment","ke y","ir d","us ing","fin e","concer t","k in","to ur","la x","love s","wonder ful","_ _","d ie","m ing","to ld","is o","ch ee","co lle","ye a","ion s","pic s","wr iting","b urn","i p","l ink","st y","be ach","li c","ut e","some times","po d","1 5","c ing","j une","l t","le d","go es","ic i","bo x","fa ir","read ing","run ning","hung ry","a p","b ri","c al","e as","f ing","g ard","to m","it ch","le arn","so l","te xt","si gh","ble ss","i ght","s im","u k","re lax","ri ble","**** .","ac count","rep ly","b ought","c ed","ou d","re ason","st r","!! !!!","li l","fort un","ep iso","2 00","b ra","c ream","s po","w ater","in ess","un k","com ple","ct ed","show er","head ing","lea ving","bor ing","c ti","g ar","p an","se con","su b","fi x","win do","cho co","proble m","dif fer","k o","do c","ma ch","ca ke","month s","defin ite","favor ite","b out","d ou","z ed","no on","ho ping","ca st","need s","qu est","start ed","grad u","definite ly","a th","b by","f rea","un fortun","ri st","wor d","any way","sp ace","sleep ing","happen ed","cour se","1 00","g if","in es","are d","d ro","g as","m r","s mi","re ci","en gl","se ason","ne ar","jo in","hh hh","ber ry","du e","song s","wal k","4 th","f il","m as","u al","v ies","ve d","so re","go in","la ugh","te a","come s","sun ny","fi gu","suppo sed","i pod","s id","en ter","na p","ta in","ah h","wr ite","cou ple","b lu","d ress","g en","i an","p arent","ar ch","sh ir","pre sent","down load","ment s","app o","meet ing","ticket s","choco late","g t","mo vies","we b","wor th","de ar","di ed","rea li","vo te","je al","serious ly","4 0","c us","c ent","d ang","e yes","g ic","n um","x d","er a","re n","ve s","es day","fin al","sad ly","ga ve","sho p","jeal ous","a li","u e","ch at","ch ick","as l","ti e","ye p","con f","say ing","sto re","fi re","je ct","xx xx","jon as","gard en","i ble","it ion","ri es","am er","work s","po ss","ge ther","hu gs","pi zz","clean ing","asl eep","m ood","m il","w t","in a","mo ving","ce le","ce pt","sh ine","bo t","bo ard","bo ys",".... ....","pa st","bro ken","spe cial","goo gle","d ar","f b","n at","v ice","an e","to gether","re vis","st ress","we ird","are n","ag ree","aa a","wish ing","comple te","i gh","l ar","it al","me t","ch ang","wor ds","po int","il s","after noon","ans wer","par k","gy m","lad y","lon don","1 st","k new","r is","r ad","me ans","for get","co s","de li","ill s","off ici","si ster","pr ay","bl ood","dri ving","drink ing","interest ing","chee se","secon d","unfortun ately","5 0","b at","b en","e f","n g","o p","u g","to u","ou ch","on s","re nt","no pe","haha haha","fe ll","ci ally","mar k","picture s","exam s","k a","m ic","w ing","th ree","le nt","ab sol","ba be","ge st","bu d","congr ats","scre en","episo de","parent s","d ate","g in","m b","le g","ch ance","ro ll","al bum","pp l","ur ing","te ach","gre en","ul t","br it","war m","sur pr",", ,","h oo","j oh","k i","m ou","p at","or der","ve l","li es","see m","sp ent","ig n","differ ent","pizz a","f ab","g ut","p or","v an","th a","to ry","on d","up load","ter s","pl ans","does nt","fi ght","wed ding","lap top","b day","d un","k ick","s wi","s al","t ee","v ac","th ro","an n","on t","es pe","ri de","wor ry","ic a","app reci","vis it","wt f","espe cially","f u","f ant","h ind","m ate","p ool","p age","s am","t rain","was h","de press","what s","sa ve","pl us","sto ry","pr of","rr rr","under stand","pu b","b gt","f oot","h y","k n","k no","in st","ar s","ho ld","he a","wh ite","ur s","po p","mm mm","would n","ile d","mess age","clu b","absol ute","a part","b as","d ance","m is","m al","r and","r ound","an no","be er","un i","se x","up set","ant s",".... ..","ex per","hh h","sun shine","show s","hor rible",". '","1 9","b ooks","d ge","f m","re mind","me ant","is ed","ad e","li ked","po wer","pro du","app le","ear li","hu ge","sha me","photo s","engl ish","shir t","joh n","' .","d v","e ach","f ans","g row","h um","o b","s le","v ill","in v","li ving","mo b","la me","ra ther","si ve","every body","qu ick","twee ting","dis appo","xo xo","chi ld","eas y","cele br","absolute ly","anno y","a le","c d","c red","d le","d ry","f it","m ama","r an","s car","w it","x i","ar ri","ch rist","wor se","end ed","haha h","fa ct","ple as","ex cept","hu bby","enjoy ing","wonder ing","ast ic","sm all","figu re","tou ch","d uring","f lo","g or","i st","k er","k it","p up","p ra","v ia","ho st","li e","he al","wor st","la ke","de ck","ill y","lu v","pro ject","look ed","dr unk","tra ff","upd ate","cam era","thin ks","earli er","sle pt","mob ile","c ous","l oo","s us","th x","in ted","st re","mo de","com ment","oooo o","gr ou","di re","hu g","bus iness","cry ing","yum my","brother s","1 8","d m","g ig","s an","v s","w ood","re cor","be at","lo ving","li p","wh ate","ti st","have nt","se arch","de al","your s","oh h","ex pe","ex act","con ne","need ed","ess ion","play ed","sho es","fre sh","arent ly","sn l","blu e","thro at","traff ic","a ust","c ross","e y","f ic","f our","k y","l one","p et","p ull","s qu","t um","in side","st ick","my space","ti re","id k","co re","**** ,","sa fe","pa per","happen s","upd ates","relax ing","windo ws","smi le","fant astic","1 3","1 4","f ish","j ay","j am","n ed","v al","ll en","al ong","su m","ta lent","ca kes","wish es","gr ound","app arently","min s","ja ck","colle ge","doc tor","gradu ation","rad io","1 6","2 5","2 day","c ase","k iss","w all","re sp","the s","ll ll","me nd","ch ur","be hind","mo on","ri p","ma th","ic s","ca li","con t","di o","ward s","em p","comp any","bi ke","fing ers","num ber","exper i","( :","c as","f low","g ee","h ee","j or","o t","p oo","p ur","p iss","v ir","w ine","th urs","is su","le ts","ed u","wi fe","not e","te x","te am","sleep y","pa ck","di es","ci ous","da ught","sk y","cr ash","bur nt","dream s","hang ing","fre n","vers ion","mid dle","whate ver","2 4","2 nd","b re","j us","p ie","th y","ll a","ve gas","ar m","so ld","ad a","al right","la zy","sh in","te ch","gu it","home work","start s","fore ver","excit ing","mess ages","poss ible","lone ly","chur ch",") .","b t","b ee","b ly","b row","f light","h anna","n on","t ay","w at","y up","re turn","or s","ho sp","for d","ti es","ust ed","can not","**** !","il ar","um p","eve nt","sto mach","long er","keep s","ii ii","move d","gra ph","dec id","qui et","sw ine","fil m","complete ly","offici ally","guit ar","c id","e v","g an","h rs","l ver","y r","an o","ou n","me mor","do m","just in","ain t","pa cking","fr ont","chick en","( (",": /","b an","d ers","d ig","e h","f y","f ill","g un","h m","h ates","i re","n one","p ink","s ar","th row","re l","ha m","oo h","and y","li a","ni ck","pp y","sh ip","fee t","fe ver","fe lt","gu e","sha re","men tion","bb q","mat ter","cti ve","gif t","reali zed","appreci ate","fren ch","! ?","6 0","i er","l er","n in","s es","s har","t an","at ive","ch an","ro ad","ni a","pe ace","work ed","de f","sh if","your self","ul ous","yy y","gg ing","sho t","pr oud","hu h","vo ice","clo sed","clo thes","sha ll","des ign","boy friend","add ic","send ing","study ing","revis ion","sex y","dv d","exact ly","0 9","4 5","a lot","b un","c ri","e ye","s is","er ing","is ing","is nt","le n","mo mm","al though","co de","ss ss",".... ...","ie ld","sp am","mi x","sto pped","eeee eeee","des k","post ed","stay ing","chill in","gut ted","rand om","decid ed","8 0",": '","c c","f at","g ine","h on","l m","l an","p c","p es","p eep","v ious","ing s","re com","ho lly","ad o","ni e","can cell","ta kes","com m","ex tra","mi les","follow ed","bu cks","da vid","tra ck","ju ly","hmm m","congr at","vill e","stre et","hanna h","hosp ital","recom mend","d ed","d et","h at","k ers","r d","r ay","t at","w l","re le","it ed","lo gy","we bs","se at","co st","co py","ra id","im press","su g","ba g","ba th","sh ut","ta ken","fe st","feel in","si st","ent s","gr am","other s","sto r","pa id","di a","rain y","aww ww","sing le","wal king","gi ving","stra ight","quest ion","grou p","a va","e gg","g ing","h an","i li","o c","s mo","t end","u d","w ind","w ise","in clu","at te","me l","ve nt","le gs","be l","lo g","go sh","for m","he at","do ll","do gs","co z","get tin","ic ally","su c","ex pen","con st","mm m","mi ley","qu e","pro per","tu esday","gl ass","sup port","vo l","ser vice","tr ou","des er","bum med","wear ing","proble ms","cur rent","chang ed","thurs day","webs ite","1 7","a po","b ay","b ang","i z","i can","s me","s and","t ur","w k","ha h","you ng","so cial","ho we","et c","he w","we st","po sit","fa iled","wa king","ind eed","twee n","sc ared","cl ou","wo lver","blo ck","enjoy ed","wed n","sen se","dou ble","mil k","bot tle","dar k","pub lic","disappo inted","tay lor","trou ble",": -","c in","c ats","d at","f li","g ri","h es","i ld","k u","m atch","p al","t able","v y","on to","re ce","ha v","all er","am i","ne igh","us ually","de ath","sh es","ca ught","con ta","che l","!!!! !!","head ed","sch edu","ny c","pla in","check ed","cer tain","bor n","bum mer","aw ful","video s","black berry","twi light","inst all","annoy ing","daught er","cancell ed","sug gest","wolver ine","! )",": :","b are","b rain","c ried","e le","f ut","g ed","h ilar","k at","m art","n ut","s li","s we","s na","v ic","in sp","er ed","re f","st at","ha y","no body","en er","ch ines","be tween","go ver","all ow","un es","do or","se ll","la w","ma in","some where","ra ce","night s","de st","sh i","ex ha","bu g","00 0","call ing","late ly","ton ite","sing ing","minut e","air port","mc fly","mou th","dun no","vac ation","prof ile","tum my","peep s","howe ver","wedn esday","chines e","b al","c ting","c ru","d arn","g ust","i la","k ay","p ig","t b","me s","oo ps","no ti","lo v","good bye","follow er","stu d","ac cid","star bucks","his tory","spe ll","class es","plan ning","sou th","amer ican","child ren","cous in","congrat ul","2 2","3 d","9 0","b c","b on","b io","d um","j our","er o","re cover","at ta","or ts","ar gh","en tire","ch es","ch ic","ne l","ne ck","us es","sh oot","po t","any ways","mu ms","con sid","ge ous","jo e","her o","pro gram","sor t","ac cess","br and","gg ed","?! ?!","tr ans","fav our","nor mal","ima gine","frea kin","blood y","fm l","scar y","gor geous","pup py","expen sive","hilar ious","- )","b 4","c la","c ree","f ield","r or","s ession","u ck","th ru","re su","or k","le ad","be come","ni c","ma gic","ra c","us ual","de gre","te l","ca p","con tin","sp ring","every day","pro b","follow friday","mon t","sun burn","af raid","pa ir","ru in","00 00","tra vel","bir d","game s","dad dy","soooo o","nor th","suppo se","dan cing","spend ing","kn ee","aust ra","suc cess","conta ct","fut ure","congratul ations","3 rd","? '","e u","f ro","f ive","h one","h us","j er","j en","m ill","p in","s light","t es","y ah","in o","in ks","it unes","so ft","lo se","li kes","ro cks","ri d","co lor","ur al","any time","fo l","sa le","si g","ul ar","gr rr","mom ma","show ing","ear th","inter view","brea king","eeee e","dis ney","load s","spe ak","aaaa aaaa","buy ing","kill ed","lad ies","fix ed","windo w","mach ine","deli cious","mark et","brit ain","experi ence","shif t","ava ila","sme ll","accid ent","! '","2 6","2 nite","a ha","b last","e mo","h ook","j im","l am","u h","v ate","y all","in fo","an ti","an im","re s","ha ll","ar ti","ho ly","lo c","lo ss","of ten","ri c","ver se","wor ried","ir on","ma jor","su gar","po in","any body","know s","fa ult","il ity","oooo oo","che er","man ag","br ought","pr in","tweet deck","tell ing","ger y","ger many","fr ust","sur gery","ction s","kill ing","hand s","ahhh h","fing er","spo t","frea king","pra cti","current ly","availa ble",") ,","a un","b right","c tor","h oney","i v","k ar","n am","p end","as ed","li ed","out ta","but ter","ter rible","are a","im port","than x","too th","bo ther","bo ss","fo x","oh hh","il ing","could nt","sto n","per for","ac ross","dy ing","sc r","wo man","keep ing","pla ces","tr an","swee tie","grad e","au to","sou l","gen er","dire ct","recor d","emp ty","flow ers","arti cle","_ a","_ c","b ase","d ish","e ff","e pic","g ers","l oud","o s","p ee","p ants","s wear","s illy","t ar","to ast","re w","st ate","no tic","le no","le ar","be y","be ar","as king","as sign","go ld","for nia","li br","li mit","ro b","he h","ti x","ri e","do in","co ast","can ada","some body","ic al","sh out","na h","fee d","ta st","gre y","che ers","bu ild","call s","sc ri","tra il","ser ies","turn ed","bla h","cam p","pri vate","den tist","sty le","str ange","ale x","ener gy","exha usted","chic ago","favour ite","practi ce","' ,","' ****","2 mor","b f","b ill","c ough","d eep","d ney","f ra","g ross","i bly","k ate","k itch","l is","l as","m ass","r ated","t it","t is","y ard","re view","st al","ll i","ch er","ch ris","wi de","ther es","se ver","ry an","de lay","got ten","ant ly","sh oo","miss es","fa ther","ex cell","every where","qu it","ph ones","af ford","ty pe","di st","di stra","ac ti","ms n","wr it","put ting","ste m","ste p","da ve","wo men","kid ding","turn s","add ed","comp et","au gust","fl ash","catch ing","fall ing","sid es","amer ica","ug ly","order ed","apart ment","cali fornia","noti ce","austra lia","hus band","libr ary","kitch en","& &",") )","b ru","c oo","d j","d nt","h ugh","p on","p ush","r on","u gg","z a","in cred","be ll","un less","co l","la un","ab t","ma le","ss s","bo w","fin als","si x","con vers","jo ke","qu o","stu dio","live d","live s","mar ried","cle ar","zz zz","thought s","cra ving","sk in","count ry","sy stem","fl at","qui z","sen i","lay ing","sou p","twi ce","mac book","near ly","nat ural","fab ulous","depress ing","depress ed","produ ctive","heal thy","expe cted","graph y","memor ies","bare ly","allow ed","hone st","excell ent","c ro","c ab","f la","f ile","g al","h r","j k","m all","p it","r of","r us","t ag","w ha","w is","w oot","to ugh","or ig","ha ps","ha el","and a","be gin","lo sing","lo cal","ti mber","ri ch","id io","up s","ter y","can ce","de v","de mi","su x","su ff","back ground","want ing","ex p","gre g","mi le","gr r","per haps","bab ys","min i","sho ts","sc ream","late st","ach es","mar y","ten tion","mess ed","plan e","holi days","pri ce","sy dney","uu uu","nn n","stra w","grand ma","pass ed","bless ed","str ong","dou bt","dro p","dro pped","conf used","surpr ise","hea ven","mis er","kit ty","issu es","momm ies",":' (","stor m","neigh bor","schedu le","notic ed","laun dry","2 1",": ]","b our","e con","e ast","i al","j es","n ation","o l","o ce","s co","v ation","th ird","to e","to pic","ll ed","me xi","is on","ar k","as ked","wi ld","se a","was nt","some how","work in","de pend","ex c","il t","ge ar","ph ili","twee ps","ig no","!!!! !!!","vie ws","app ear","dr um","dr ama","mar ath","sit u","blo cked","tre at","tre nd","help ing","dd en","cha llen","set ting","cr ush","sm h","sm oo","fer ence","cook ing","cook ies","mid night","slow ly","dra g","dam mit","interest ed","__ __","200 9","reali ze","mic ro","bud dy","teach er","fight ing","ob vious","arri ved","flo or","sus hi","shar ing","clou dy","eu ro","import ant","lear ning","timber lake","$ $","' ...","9 9","; -)","_ d","a v","c enter","i k","j ess","j ump","n oooo","r ite","t raining","v ous","w ra","re co","re quest","at m","the at","it ting","st ri","st ation","is es","oo oh","no se","ar ms","so ci","ho l","ho tel","lo y","et y","ri ce","ke ys","ly n","ce p","but ton","pp ines","ur l","good ness","nt y","na ils","te mp","fa ve","ww ww","mm ing","has n","pre s","qu een","should n","di et","ac tion","rain ed","hur ting","clo sing","?! ?","finish ing","give n","cha rac","super natural","tru ly","pain ful","???? ????","fl or","33 33","card s","cover ed","sim ple","figu red","enter tain","present ation","stress ed","mic hael","mou nt","tee th","wash ing","inv ite","cred it","cross ed","piss ed","han gover","deser ve","mont ana","slight ly","phili ppines","_ b","_ n","b ff","b ooo","d ir","e w","g es","g ah","h en","h ill","j b","m am","m rs","n it","p ies","p ages","p hew","s la","s ie","s ci","t gif","w inter","in vol","an i","to ri","at tend","oo m","en e","en s","so m","ch ing","ch oo","be sides","ad mit","wi re","he yy","al ity","wh oo","un cle","ti p","se y","la kers","su it","su cked","su dden","ple nty","sa ving","wa ste","ge o","watch in","twitter ing","ess ay","che ap","play er","gg gg","da ily","find ing","zz y","hell a","cra ppy","sha ke","less on","job s","spe a","light s","cor n","lin es","pay ing","pick ed","learn ed","engl and","download ed","pat i","upload ing","swi mming","four th","resp ond","cont ro","issu e","pie ce","chan nel","det a","rele ase","proper ly","glass es","fol ks","3 5","_ x","a head","a wards","b ers","b ound","c row","d c","g ies","h t","i th","i tor","j i","l ts","s ir","w ro","at l","st ed","ll l","me al","ve t","ve lo","you re","es e","go lf","ad v","mo ti","wi ch","al arm","we ight","ni co","ne ither","not es","ur y","ma g","ma ster","end ing","de l","de let","ill a","happ iness","miss ion","fa ke","ie st","fri days","com fort","twit pic","pre fer","look in","ide as","sto ck","bu ll","ber t","br ad","car s","app ro","book ed","ner vous","cra ck","fam ous","tr ad","happen ing","talk ed","dd d","stay ed","cr am","rep ort","wer en","plan ned","upd ated","au d","fan cy","dec is","oooooooo oooooooo","cli ck","email s","burn ed","eas ier","sim s","episo des","join ed","offici al","bat tery","swi m","remind s","celebr ate","pleas ure","resp on","addic ted","lm fa","impress ed","contin ue","sever al","convers ation","marath on","deta ils","delet ed","2 7","5 00",": |","_ m","b ble","b ills","c s","c ir","d ru","f tw","f fin","g ro","h d","i am","j um","k ir","l ou","n al","o bs","r out","u es","y u","th n","th or","th um","to y","re t","re gre","re gi","re search","st eve","st ru","ll ie","ha vin","is land","no where","le igh","ar a","lo gic","ad vice","ck y","ro ast","wi i","et s","al co","do l","se l","se le","id a","but t","pp er","ma x","ra h","im ma","us er","mor nin","na sty","ish ed","ta ste","ca vs","pl s","pl ant","sp eed","sp ort","jo sh","ul u","mi sta","gr ab","ff ff","bad ly","ps y","part s","gg y","dr inks","hur ry","vo id","vo ted","tweet ed","rr r","dis cus","clo ck","sit es","boo t","real ity","cha p","cho ice","bla me","pain t","pain ting","tt tt","ju ice","tin y","mat t","dif fic","dec ide","prom ise","key board","laugh ing","deli ver","emp loy","shin ing","tat too","fli ck","ruin ed","mill ion","poin ts","manag ed","perfor man","scr atch","trail er","quo te","rof l","smoo th","theat re","mount ain","' '","2 9","4 8","^ ^","_ e","a live","b read","c ine","d ut","g d","g host","h ood","j an","l ee","m t","m ie","n s","n es","o per","s wo","s core","t un","w are","x box","th under","to s","re li","at tention","or y","st ream","me dia","ar r","en g","en se","ch ed","be coming","as y","ho p","li f","li o","ri ous","ke pt","ver t","ly ing","se cre","ter min","can cer","ab ility","us a","de velo","don al","sh ee","how s","ag a","te ars","any where","know n","mu l","fe llow","off er","com ments","ex tre","ex ist","um mm","con vin","con ference","mi gra","che ster","gr ay","mon days","other wise","pa cked","ru bb","ber ries","br on","star ving","star wars","app s","bab ies","ama z","most ly","ste ph","tra ve","ser ver","big gest","hel ps","ton s","talk in","ja mes","party ing","post ing","real ised","pi x","tru ck","sm art","fr ank","ball s","char ger","remember ed","kk kk","sta ck","cli p","cli mb","lor d","woo hoo","bra z","dress ed","lar ge","pray ing","ann oun","bas ically","celebr ating","cous ins","kiss es","ev il","bun ny","desk top","comm un","seat tle","inclu ding","tur ning","posit ive","sig ning","britain s","base ball","wis dom","choo se","wro te","secre t","migra ine",". !","2 3","2 8","_ k","_ o","_ car","a ck","a im","a haha","a tor","b ie","c nt","c able","c tic","d h","f ru","g b","g ie","h id","i red","l un","m pt","m tv","n ur","n ooo","p ill","w en","w he","y er","y ork","z er","th on","to ny","to tal","re gu","re place","re cent","or gan","st ates","me e","me di","is m","ee l","ed iting","ad or","ad am","ad ding","li king","ck ey","ro me","ro se","he ck","wh is","ke lly","co ll","pp in","la ck","ur a","some time","ye h","if ic","te ar","ta il","sa u","wa ve","ent ly","sp in","sp ee","sp id","sl ee","ard s","mi ke","ind i","again st","wait in","ac cor","ru b","down town","ci a","tho mas","lit er","ms g","eeee ee","clo ser","ton gue","listen ed","tr ust","give s","ash ley","pi er","cor re","cr is","ure s","rep lies","nor m","hor se","stand ing","lin ks","yyyy yyyy","cup cakes","200 8","quest ions","cent r","aaa ay","pop ular","christ ian","tex as","gun na","lan gu","bath room","rece ive","suggest ions","swe at","stat us","stud ent","recover ing","resu lts","degre es","jim my","mass age","orig in","oce an","trend ing","regu lar","! ...","- >","/ /","7 0","9 5","_ j","_ r","a while","a void","b k","b ust","b ones","f ur","f ash","g ain","k night","l at","m ir","n ers","o dd","p as","p ly","p our","r ush","s f","s ion","t xt","t ree","u ary","v ive","w ks","an ut","an ces","to oo","re pe","the me","it es","or ange","st air","ha i","oo my","no m","you n","le m","ar tist","as ap","ho le","lo ck","go ss","for um","ro cked","al y","ti m","ti ps","id s","ter ed","with in","la unch","ab o","ma kin","pe anut","im possible","ba con","ant a","ate st","po li","bo b","bo ston","te m","te le","ta x","fe ar","ie l","gu d","gre atest","pl z","ct s","um m","con test","sp an","ess ed","mi st","twee ters","ff le","bu gs","bed time","ci p","let ting","sc are","vo ting","ste ak","ner d","cu dd","par a","par is","hear ing","hair cut","je ff","dri ver","ash ed","post s","dd dd","hun ting","net work","cha mp","pi re","-- --","bur y","bur ger","int ment","soooo oo","tt t","add ress","upd ating","au dio","sy n","ins ane","char ge","tic s","mc donal","pan ic","secon ds","sub way","differ ence","ko tb","laugh ed","bot tom","ef fect","op tion","teach ing","surpr ised","surpr ising","foot ball","bas ed","grow n","grow ing","annoy ed","christ mas","heal th","pull ed","doctor s","pur ple","tex ting","shin y","brow n","atte mpt","aller gies","insp ir","dum b","bey ond","delay ed","shoo ting","acti ve","exc use","igno re","situ ation","obvious ly","sci ence","spea king","regre t","alco hol","diffic ult","performan ce","extre me","accor ding","liter ally","fash ion","stair s","1 40","6 th","9 am","_ g","b ing","b unch","c ise","f on","g ni","i love","m are","m ouse","n ooooo","o pp","p j","p ine","r am","r up","s ni","s our","t een","t mr","u x","v it","v ine","v ity","w et","w ah","w hew","y rs","z om","er ic","er ror","to es","at ar","at least","or g","st age","ha ck","no ve","le vel","ch ina","be in","be ta","li d","li ver","ut ion","mo s","mo te","un ders","ti ght","ter m","ter ri","ne g","la b","la wn","la ws","ur gh","some day","good morning","us ion","de ce","ba h","sh at","po s","haha hahaha","mu ffin","fe ction","fe male","fri dge","com mer","gre et","had n","fun er","sp orts","oooo ooo","mi che","mi ami","ph ys","twee ple","sun burnt","man age","ac ting","ac cep","pic al","ang ry","star s","gl oomy","best ies","ear s","gg in","gg er","cou ch","act ual","feeling s","big ger","eeee eee","mus h","roo mm","par king","bl ank","less ons","des p","ja pan","sk i","sk ills","30 pm","em bar","aaaa a","free zing","class ic","count ing","tru th","rep lied","wal ked","fr an","fr ance","aw some","clean ed","???? ??","hehe he","hand le","clu e","chill ing","fly ing","ak a","cook ie","open ing","sw itch","dra wing","scre wed","!!!!!!!! !!!!!!!!","pick ing","mas sive","xxxx xxxx","chang ing","tee na","hy per","expe ct","conne ction","squ are","gee k","vir tu","memor y","sar ah","oc to","atte mp","iz on","sand wich","nut s","frust rated","dish es","2mor o","compet ition","seni or","honest ly","idio t","miser able","jes us","flor ida","dir ty","_car ter","ador able","spee ch","! ..","' !",". )","6 am","? )","_ 0","a my","a lo","a ur","a us","a ks","b its","c ul","d ye","f g","g f","g am","h ills","i ed","l um","m ur","n v","n oo","n ood","n kotb","o d","o my","o ven","p ha","p ad","p ound","s now","s ry","s wed","t ab","t une","w d","w ers","y i","z o","z en","th ri","an ni","to k","at ure","the tic","or ious","st ing","me tal","le mon","so c","be lly","lo ser","ad vent","ro t","ro le","al as","ti al","ri ver","do s","se p","wor ries","ab ly","ra chel","work out","us b","got s","sh er","po ta","ag re","bo re","**** ...","know ing","fo lio","ca f","ca pe","will iam","gu est","con fir","sp a","sp ir","twitter s","every time","mi es","pre vious","qu ar","pro cess","ph illy","friend ly","gr an","ff y","per io","ru le","ru by","weekend s","ment al","car ry","app e","school s","gl as","gl orious","ga z","bro ad","thank you","thank ful","sure ly","yay y","dis co","sit tin","hard ly","roo f","run s","tor s","xx x","spe ct","vis ion","vis iting","wea k","30 am","aaaa aa","sur vive","med ic","chi ps","mum my","dan ny","grand parents","scre w","woo p","bri an","pan cakes","dro ve","chat ting","fire fox","poss ibly","revis ing","bat tle","bud get","sal ad","mode l","san ct","conne cted","cont ent","fy i","egg s","certain ly","emo tion","assign ments","build ing","bow ling","cance led","babys itting","mexi can","challen ge","av atar","contro l","nico le","comfort able","lmfa o","dru gs","cine ma","swo llen","rubb ish","braz il","sau ce","spid er","norm ally","goss ip","extreme ly","desp ite","perio d","! .","3 00","4 am","7 am","8 8",": @","= ]","> .","_ mar","a x","b am","c ere","c ie","c ig","c ash","d ust","e a","e ww","f c","f le","f ed","f ool","f lies","h ous","h ulu","i x","i dol","k im","l ang","m l","m ers","n an","o aks","p tion","p ills","r it","r are","r ab","r ise","s can","t ro","t am","w an","w ok","w ats","z oo","z ero","~ ~","th ir","in i","in ve","an ne","er r","to ut","to ys","to ps","re hear","re gard","re fresh","re spect","me h","me eee","ee s","no thin","ed ge","so ph","so ber","so cks","be ars","be lla","as su","as well","ho pes","for give","mo z","un g","ri ck","co ck","pp ers","ur k","ma gaz","ic ed","ic ulous","end s","de mo","like ly","ba c","ba gs","sh u","sh ou","sh ud","po se","po lit","if y","bo at","ta co","ca fe","sa les","com in","com plain","gu m","si ze","con d","con tra","pre p","pre mi","qu ality","che st","sto ne","rea ch","head s","ru de","pic nic","rain s","app lic","him self","girl friend","fi ed","ull en","dr ank","ach ing","da le","brea th","brea the","cut ting","check ing","par ano","je ans","ja cks","ange l","bor row","photo shop","photo graphy","dad s","rest aur","hang in","nor ing","person al","gi ant","ahhh hh","sign ed","vi sta","bring s","bring ing","sn ee","die go","colle ction","bri lli","cast le","hhhh hhhh","download ing","num bers","pray ers","fu ck","hea vy","arri ve","recor ding","talent ed","pack age","event s","iiii iiii","ban ana","sar a","holly oaks","ado re","smo ke","const antly","clou ds","install ed","ele ct","consid ering","degre e","0000 0000","success ful","aun t","limit ed","lis a","tit le","file s","econ omy","nation al","depend s","euro pe","invol ved","gro cer","sel ves","mista ke","chap ter","pill ow","origin al","youn ger","mcdonal ds","roomm ate","octo ber","soc cer","sanct uary","( )","5 th","_ in","a o","b in","b ul","b lip","c ass","c tory","c andy","d ates","f 1","f if","g ur","h s","h ating","i ze","j r","k et","m oo","m ates","n oooooooo","n ug","o re","p he","p red","p ity","s ma","s pl","t n","t x","t ty","y ess","y uck","th us","in ting","er in","to dd","to pics",".. !","re g","re ck","re sist","or a","st ic","me ster","ay y","my ster","and on","ar g","ar my","ed it","en ces","ch u","es p","lo cked","lo vin","go w","ad vert","for ce","for ced","all ey","... '","... )","ro cking","mo tor","wi d","wi cked","al a","un fair","ri ding","out fit","do cu","se c","se mester","am p","co w","co ach","la h","la id","ab andon","ma h","night mare","de m","too d","mor ris","po l","ag ue","bo mb","iss y","fa ces","sa ved","fri ed","oh hhh","com fy","ex er","gre ss","si ght","sp ain","sp read","twitter land","mi a","sad ness","qu ot","pro ve","pro bs","pro vid","ph il","che m","she l","gr 8","twee tie","won ders","sto ries","ty pical","pa thetic","who a","bu bble","di ce","head aches","ci es","br ook","ps 3","app t","let ter","gg ie","sho ps","pr int","sc ene","cou ver","tri but","ste al","wo re","old er","zz le","blo w","blo gging","cra z","roo ms","cu rious","bl ing","win ning","sing apo","help ed","cha in","cha se","set tle","mean ing","wal mart","sm iling","name d","name s","???? ?","dream ing","cy cle","cy rus","port folio","uu u","hor ror","gra ce","vers ary","char ged","33 3","lin a","band s","cre ative","cour t","ring s","sn ugg","ven ue","led ge","bri dge","spo ke","sub ject","sub scri","100 0","gif ts","appo intment","cus to","revis e","mb ers","van couver","swi ft","train s","hold ing","inv ited","loo se","search ing","rip tion","sky pe","crash ed","tech no","(( ((","fill ing","fill ed","len ce","momm as","ded ic","rele ased","sist ers","smo king","log ies","pal m","rece ption","kat ie","cru ise","stud ents","jour ney","consid er","cree py","contact s","rid iculous","smell s","iv ity","bother ed","tran sl","gold en","incred ible","incred ibly","begin ning","exp lo","straw berries","micro soft","reco gni","wire less","decis ion","dut y","termin ator","whe ther","corre ct","para more","dece mber","anni versary","agre ed","glas gow","magaz ine","shou tout","parano id","singapo re","0 5","3 am","7 5","8 am","> >","_ xo","a i","a z","a pt","a py","b ou","b one","b ic","b ies","b ass","b ask","c and","c ad","c ries","d re","d iss","d af","e 3","e c","e bay","f al","f fa","g 1","g ooo","h w","h ic","h ide","i b","i mo","i ke","i us","i zing","i val","j t","j et","j ason","l ooo","m ater","m ask","n z","n is","p un","p out","p am","r at","r ang","r ass","r ating","s lo","s way","v ar","v io","w and","w ooo","in cre","in fection","er d","to re","ou nt","re qui","re pair","re views","at tra","the ory","it er","it ter","st i","is a","is er","oo f","and s","ed in","en ing","be th","be long","ho or","ho llie","ho mie","ho ckey","gh hh","ad i","ck in","wi fi","he ld","un ion","un ited","ri age","se ats","ter n","ne phew","pe ar","us s","ba ked","too ls","po et","po ten","po cket","po lar","bo wl","te ase","tw its","fin ale","fo ld","fo cus","ca le","fa ster","our s","fri es","art s","pl u","pl urk","ct ure","fun ction","ge or","when ever","come dy","ul ti","qu et","pro mo","use ful","ind ian","che mist","gr ate","gr ass","gr rrrr","sun days","!!!! !!!!!","ff s","say in","pa ul","bu ck","bu zz","di am","yeah h","lea vin","sup por","gg g","fore st","wr k","hu mor","tri ps","luck ily","bir ds","war ning","sit y","blo cks","bl eed","10 th","help ful","spe c","ange ls","far m","ure n","hahaha h","bur ri","test s","test ing","pri de","nn nn","pu bl","char lie","kk k","chill ed","ima gin","dec ent","cre ated","sta ff","grand pa","sw ing","cli ent","dra w","short ly","dam nit","gar age","gradu ate","smi les","reci pe","join ing","hhhh h","ef fort","wing s","upload ed","kick ed","appreci ated","prof ession","rand s","hum id","vill age","quick ly","wit ty","pleas ed","aust in","llll llll","math s","poo p","oun ge","rel ation","fest ival","wk nd","sell ing","atta ck","trans fer","jer k","yah oo","accident ally","anti cip","prin cess","kar ma","assign ment","tast es","tast ic","scri pt","2mor row","suff ering","setting s","charac ter","charac ters","pati ent","obs essed","thum b","regi ster","fru it","langu age","abo ve","poli ce","inspir ation","tmr w","nove mber","commer cial","funer al","nood les","tok yo","bore dom","wok en","inve st","brilli ant","grocer y","pred ic","' ?","( [","0 8","3 6","3 60","4 00","5 5","7 8","< <","= /","_ s","_ w","_ me","_ la","a wh","a ver","a id","a than","a ah","b id","c to","c has","d all","d read","d rew","e li","e qu","e ight","f as","f are","g m","g oooo","h ated","i zed","j ane","j uni","j ury","k an","l ounge","m unch","n ash","o x","o z","p g","p ff","p itch","r in","r ant","s r","s ink","s ang","s ms","s nap","t m","t ask","u de","u hh","v p","x ious","z es","z one","z ac","in sur","in som","an tic","an xi","er rands","to ma","to ss",".. ?","re ee","re tweet","the ater","it ies","it ions","it ali","me mbers","ve get","no 1","no es","so lo","ch it","day y","be s","be an","be ans","be came","as ing","as se","lo s","lo go","lo va","ut ter","ro y","et te","al and","wh er","un able","do ors","co p","co ding","up grad","pp pp","was sup","la ce","la uren","ra p","ra ge","ic es","night y","de le","ba i","ba haha","too l","ye llow","na than","ag ues","te mber","ta pe","**** -","lol z","miss in","sa us","wa sted","com pl","com ics","gre e","ent ry","ite ms","sp ill","twitter verse","every 1","oooo h","mi ch","mi ly","pre view","would nt","use less","sor ted","ig an","ble h","man go","man chester","should er","bu ff","make up","stu b","nice ly","per th","per ate","ac compl","ru bs","play s","after wards","hi p","br ush","people s","gl ing","min t","min es","min us","part ner","girl friends","ugh h","ugh hh","om fg","du ck","cou n","da wn","mar i","mar ley","mar riage","cu re","par tic","par ties","bl ind","tor onto","tr ade","boo m","low er","ja il","ank le","hun t","pen s","em er","ger man","cor ner","-- -","leave s","fr m","beaut y","bur g","int ro","soooo ooo","???? ???","ken ny","kill ers","comp lic","cy cl","cam ping","au di","sy m","fail ing","care s","jon athan","dif f","mit chel","comput ers","20 10","cre w","defin ately","yyyy y","den ver","moment s","pod cast","ko rea","dou gie","fil ming","shir ts","dar ling","nat ive","deli very","leg al","brit ney","sal t","hum an","ob ama","disappo inting","kit ten","cross ing","gee z","jor dan","tex ts","pie ces","dig ital","rel ated","rel ative","nie ce","hat ers","inclu de","const ant","posit ion","swe ating","insp ired","lead er","tes co","grrr r","market ing","anim al","anim als","loc ation","_c ullen","fra me","seni ors","cance l","scream ing","neighbor s","soci ety","hen rie","moti vation","trad ition","cram ps","respon se","kir k","thn x","deliver ed","eng age","mul ti","convin ced","starwars day","commun ity","receive d","pour ing","span ish","surprising ly","miche lle","japan ese","sep tember","restaur ant","brook lyn","bask et","gooo d","chemist ry","grate ful","dall as","itali an","partic ular",") ...","0 6","2 50","3 1","3 8","4 6","4 pm","7 th","< /","= (","= =","? !!","_ the","_ ben","a fri","c is","c ate","c um","c run","d k","d ee","d oo","d are","d reading","e ll","e clip","f ry","f ts","f ty","f usion","g mail","g ins","g aga","h 1","h p","i ans","j st","j un","k een","k rist","m k","n ine","p ong","p um","p unch","p ure","p unk","p anda","r ate","s ab","u b","u ber","u rie","v or","v alley","w ana","w ud","y aa","z i","th t","th ous","th unders","in n","er y","to oooo","to ooo","ing ton","re sc","re mote","at ic","st an","st eel","ll ing","me ee","me ds","me mber","ha lo","ay e","you th","and rew","le x","le st","en a","ch in","ch uck","be c","ad s","ad es","ad ult","li me","ck en","mo w","wi e","et a","wh ee","wh il","** *","un happy","ti ve","ti ring","ri o","ver on","ver izon","do w","se cur","am ber","am using","am ount","co t","co ke","co work","up on","up grade","ir a","ab s","ab y","ra z","de b","ba ge","ba king","sh orts","ks ha","mor n","na w","na il","thing y","po ll","po le","ag ed","today s","tw in","tw pp","tw ins","**** ?","back up",".... .....","fa ctor","fa ith","mu d","wa ck","wa aa","wa ves","com mon","gu il","ex change","ex plain","pl or","pl ants","si ble","si lence","il and","um ble","con verse","sp r","sp ac","sp ark","jo kes","twitter berry","ard ed","pro te","pro gress","ph y","ind ust","friend ster","tomor ow","mon s","mon itor","sto le","sto ked","pa u","show ed","di p","ru g","har ry","har der","har dest","hi ya","br is","car o","min or","awesome ness","bro s","sho cked","list ed","pr ison","sc en","du b","du bl","vo tes","cl ar","cl oud","mar ks","cle ver","wo e","bit ter","zz z","blo ws","cra w","cra ig","tell s","mus cle","sha pe","par ks","bl on","bl ink","win ner","tr ash","dri vers","ja cket","ja va","sk ies","music al","stuff ed","em pire","sur round","bur gh","bur ning","land o","food s","ju dge","kill er","comp li","bb c","chi li","pri or","hit ting","lle y","person ally","hor ri","mat ic","high ly","ima c","ima ge","vid s","bi z","mommy s","grand mother","pass es","pass word","slow er","cup s","goo se","pay s","colle agues","lic ense","bri de","tom mor","sim ilar","account s","str ang","smi th","fil ms","blu es","gen ius","present s","cent re","dang er","store s","........ ........","stress ful","chang es","answer ed","cheese cake","op in","brit t",",, ,","por tu","tha iland","kick ing","wash ed","kno ck","remind ed","produ ct","inv it","pleas ant","sus pe","mode ls","grou ps","expe cting","conne ct","squ ir","jam ie","ground ed","hee ls","vir gin","daught ers","brow ser","return ed","ev ry","hm ph","bun tu","cri min","ray s","cost s","ging er","const ru","gri ll","neigh bour","sli ce","pig s","spell ing","american s","resu lt","hook ed","lam b","ric hard","frust rating","tran sport","soul ja","gener al","tar get","feed back","'**** ?","dist ur","distra cted","pon y","straw berry","bour ne","mexi co","wra p","entertain ing","geo graphy","adv ance","ret arded","discus s","amaz on","recent ly","whis per","centr al","cudd le","effect s","neg ative","accep ted","virtu al","attemp ting","aus sie","pota to","spir it","emotion al","_mar ie","fle w","hous ton","rare ly","applic ation","jacks on","myster y","exer cise","quot es","custo mer","recogni ze","hoor ay","poten tial","geor ge","ulti mate","diam ond","lova to","dele te","complic ated","eclip se","whil st","secur ity","dubl in","! :","' ..",". ,","3 9","4 7","5 k","5 am","8 th","8 00","9 6",": \\","_ l","_ ro","_ 12","_ henrie","b ite","b oooooooo","b oun","c en","c hair","d im","d ess","d ork","e no","e ag","e llen","f s","f id","f ig","f urn","g im","g ang","g aller","h its","i me","j unk","k c","k as","k ins","l ers","l ind","m im","m ite","n h","n u","n as","o we","o il","p d","p id","p ment","r c","r ly","r um","s have","s lip","s anta","s tood","s issy","t as","t ut","t up","u cks","u buntu","v v","v am","w u","w end","w ink","w rist","th read","th rew","in ed","an thon","to ni","to ile","ing e","on ion","re k","re y","re all","the e","it t","it self","it ure","st un","st ink","st inks","me at","ha l","ha wa","ha bit","no ise","le on","le bron","ar on","ch et","be bo","be ard","be live","be ats","as ha","ho e","ho ll","ho les","go v","go al","gh h","for th","for ms","all ah","li m","li an","mo d","mo i","mo ck","mo der","wi ki","wh it","un a","un t","ke wl","we ir","out look","do d","do me","ther apy","se par","ust ing","co co","co stu","ce l","with dra","ne st","ne gle","can ucks","la ine","la ura","ir l","some thin","wee d","pe pper","im medi","us ive","de x","de vice","ba k","ba ke","ba ker","sh h","sh ed","sh ann","na ked","happ ier","happ iest","po ly","po ster","po ps","po pped","ta xi","know ledge","fin an","ple s","new castle","fe ature","fri ggin","gu ilt","ex po","ex plor","gre w","si an","si zed","read er","con vo","con centr","twit ting","sp er","sp are","sp ray","hope ful","ine a","twitter ville","king dom","lu x","sad dest","ind ia","twee ter","ous ers","mon ster","mon key","wait ed","ble w","ble nd","ff les","sto ps","sto len","ty ping","ty ler","over cast","pa c","pa pers","pa sta","should nt","who ever","bu gger","bu ffa","yeah hh","per form","ac cept","ru les","down stairs","play in","hi re","hi bit","br b","br unch","star ship","car a","long est","mothers day","best ie","ice cream","let te","ugh hhh","thank fully","fi lip","year book","pr oof","soon er","sc rubs","aww www","du h","du des","ste ll","da w","mar ry","tra cks","wo lf","cut ie","cut est","ser vers","zz i","pret end","dis covered","blo gs","blo wing","guess ing","bus h","kind s","sha w","par ti","el s","sing er","load ed","vis ible","ja ke","ja zz","ten nes","sk ate","sk ip","real y","real ise","sat is","bea st","ii i","-- >","count s","rep orts","eat en","bur gers","sent ence","ju dd","kill s","comp ared","py thon","cam er","holi c","fre ed","ze aland","au thor","mat the","high er","fl ood","forgot ten","bi kes","dead line","sign s","open ed","son s","suck y","vi p","cli ents","yyyy yy","dra gon","dra gged","cup pa","prom ised","yo ga","tour ing","chee sy","box es","cal m","text ed","bless ings","sim on","reply ing","reason s","spo ck","ko re","doc s","gradu ated","unfortun at","dress er","meeting s","cus tom","ali ce","conf using","garden ing","mil ksha","nat ure","aaa ah","ital y","met ro","bat man","op rah","babe s","bud dies","leg it","van illa","kno cked","inst ant","mmmm m","mmmm mm","celebr ity","arri val","pup pies","pra ctic","gig s","wood s","pet er","pull ing","pur se","piss ing","vir us","jus s","tech ni","mention ed","nin ten","tan ning","addic tion","mix ed","eeeeeeee eeeeeeee","hon our","holly wood","impress ive","wind y","mel bourne","bel gi","doll ar","bang s","tur tle","dat a","dat ab","schedu led","mart in","hay ley","shi ps","tb h","bio logy","atta cked","pot ter","cla im","cree k","sunburn ed","jer sey","manag er","gener ation","_a _","eff ing","writ er","writ ten","col our","cro chet","econ om","sco t","sco tt","drum mer","____ ____","pres so","pres sure","mam as","ani me","crow n","adv ant","moti v","aud ition","user name","psy cho","flick r","mountain s","convin ce","climb ing","announ ce","announ ced","hid ing","nur sing","spin ning","indi ana","repe at","zom bie","shat tered","manage ment","embar rass","pound s","swed en","yi pp","thri lled","advent ure","william s","appe ared","medic ine",">. <","cond ition","sanctuary sunday","nug gets","yuck y","techno logy","dedic ated","ike a","burri to","cto se","fare well","juni or","insur ance","anxi ety","saus age","mich igan","stub born","cycl ing","sym pa","_the _","thunders tor","guil ty","opin ion","furn iture","galler y","anthon y","costu me","buffa lo","tennes see","! ?!?!",") :",", .","0 4","1 am","2 b","2 am","3 2","5 pm","6 5","8 4","8 7","9 4",": [","_ f","_ i","_ y","_ ha","_ co","_ ba","_ guy","a ward","a hahaha","b g","b m","b oooo","b ster","b ree","b bl","b illy","c n","c p","c lap","d or","d row","d ash","d ump","e va","e mily","f oo","f one","f ter","g 4","g th","g lo","g il","g ary","g gling","h k","h ve","i lo","j j","j ag","k ee","k ra","k ris","l j","l ates","m ation","m andy","m ami","m ware","n p","n ba","n xt","o me","p w","p ir","p ere","p ul","p last","p her","p ump","r l","r er","s d","s ne","s rs","t d","t all","t was","t ended","u 2","u i","u no","u le","u ro","u um","w y","w th","w re","w ut","w rest","y l","y ee","th ou","th as","in no","in su","in ner","in spe","in ju","in cid","an xious","er t","to x","to ne","to ms","to wel","on a","on ing","re z","re at","re new","re min","re je","re ls","re lay","re present","at ivity","it a","it as","or lando","st ats","st rep","st itch","me thinks","ha sh","ha wks","is y","ee t","ve ni","and er","le ague","ar th","ar ies","ar ian","en gine","so so","so ww","so lid","ch or","ch rome","be ck","be ating","be loved","be gins","es sa","es cape","es presso","lo ll","lo ver","li z","li ly","ut s","ro cket","ro gers","wi f","wi l","wi ves","et ch","et sy","al ine","wh eel","un d","un it","un ity","un followed","ti la","ti ff","ti erd","ri x","ri ot","ke vin","ver sity","do main","ther n","ly m","ly ric","se mi","am ong","am med","co pe","co bra","ld a","ni es","la be","la ught","la ppy","la ctose","ir ish","ab it","ma a","some what","im m","ic on","de w","de ll","de fo","de fault","ba thing","sh it","sh ri","sh hh","ye y","na ck","na use","po pping","see s","see med","bo iling","today y","fee ding","ish ing","ta i","rom antic","**** !!","ow ww","fo c","ca che","fa ire","fa ctory","will ing","mu se","sa ck","sa far","wa les","wa sting","oh io","com ic","com men","com cast","gu ide","gu inea","ex pi","ex press","gre ase","think in","week ly","pl ug","si a","si ls","si lver","ite m","con tribut","fun d","fun ni","twit ts","need le","sp y","jo int","come t","mm er","twitter ific","last s","mi key","pre ju","pre gn","pre sid","morning s","qu es","ph ill","ind y","che f","gr in","sleep in","follow s","ig noring","ble d","sto pping","bet ty","tonight s","over all","over night","man n","pa pa","pa ste","should a","gon a","bu eno","di zzy","rea ction","rea med","them selves","ac ade","dy ed","try in","car l","vie wed","app lied","gir ly","let ters","tal ks","gg ies","sho e","sho ck","list s","never mind","ick y","sc ription","cit iz","start rek","fore ign","ooo l","tri ck","ach ie","mar ked","act s","self ish","tweet up","cle ared","bit es","brea ks","cut s","dis play","pla ced","guess ed","hard core","ton sils","mus hy","sha red","check in","fam ili","cu d","par ad","10 pm","hot t","listen in","sing s","tor n","tre es","tr um","tr ousers","sin us","ash es","boo ts","ten nis","net working","stuff s","cha i","pi ano","cho res","aaaa aaa","cry in","mind s","sm ashed","aw k","whi st","gn ite","bb ing","va lid","pri ces","hand y","bar s","wear s","hor ses","stand ards","ahhh hhh","char ity","char ming","fail s","fail ure","care er","chill y","heart s","ima x","mit ted","cook ed","lin ux","mid day","cur ve","cur se","sign al","lay out","tube s","dan iel","cup cake","goo ood","!!!!!!!! !!","dam n","yo gur","ped ic","bri ck","sim ply","comple ted","gradu ating","frea k","laugh s","gen cy","web cam","ali e","mil an","op ti","roll s","roll ing","por k","tha i","kno x","inst ru","pop corn","apart ments","mal ay","books tore","remind er","john ny","dry er","wit ness","touch ed","gor y","kit ties","project s","loo p","stre t","dm v","recor ded","deal ing","pet s","squ ee","tum bl","fish ing","wall et","pur pose","edu c","note book","crash ing","peace ful","spam mers","80 s","fat ty","hon or","comm ute","street s","impress ion","mel ted","doll s","doll ars","deser ved","apo logies","cin nam","aller gic","chel sea","sna ck","vic tori","ref le","ref uses","pig gy","lov ee","bon us","jour nal","consid ered","hero es","fro g","jen ny","color ado","fol k","disney land","aaaaaaaa aaaa","loc ations","perfor ming","bey once","cher ry","dist ance","distra ctions","dev ast","situ ations","crush ed","$$ $","attend ing","sudden ly","crow d","decis ions","cir cus","jum ping","lou ise","rout e","thum bs","logic al","sele na","discus sion","employ ee","oper a","lun gs","pier ced","lem me","syn c","ilove you","opp ort","zom bies","greet ings","confir med","quar ter","disco very","tam pa","contra ct","prep are","sma ck","reck on","docu ment","abandon ed","snugg le","ridiculous ly","pam per","requi re","edin burgh","imagin ation","register ed","nash ville","toma to","wher es","coun ter","emer gency","engage ment","_ben son","cis co","craw ling","surround ed","tommor ow","fig uring","hawa ii","filip ino","judd day","freed om","matthe w","ninten do","advant age","pere z","srs ly","soww y","lyric s","safar i","commen ce","preju dice","pregn ant","acade my","victori a","' -","( ****","- .",". ?","0 7","0 o","2 night","2 2nd","3 7","6 7","6 00","6 30","6 pm","9 8",": *","? ...","_ z","_ an","_ and","_ ra","_ di","_ girl","_ mcfly","a gh","a per","a ight","a hah","a ero","a aron","b li","b end","b art","b ash","b ooooo","b usted","c ers","c age","d g","d up","d ill","d ges","e k","e z","e qui","f its","f ont","g it","g ad","g na","g lu","h b","h ong","h eeee","h eee","i ro","i zz","j p","j ones","k h","k m","k le","k ni","k ia","k nack","l oooo","l bs","m 8","m ut","m ps","m cr","n j","n th","n ate","n ana","o y","o ll","o red","o dy","o live","o _o","p is","p atch","q ld","s g","t ink","t ang","t roo","u ff","w ag","x 3","x y","x men","y an","y eeee","y ip","y aaaay","z im","z ach","th r","th ma","th ick","in ate","in put","in ten","in fect","in box","in tention","in famous","er g","er rr","to my","to wards","on i",".. '","re fer","re move","re cess","re ven","re bel","re turning","at a","at tics","it ive","it tt","or ders","st s","ll s","me me","me ad","me ow","me ga","me lt","ha a","ha b","ha w","ha cked","ha wk","no things","no men","and ro","ar rr","ed ly","ed ited","en ed","en vy","en thus","so b","so da","so ftw","ch ir","be have","be side","as p","as hi","as sist","as thma","ho g","ho lla","lo re","go s","!! ...","ad op","for mu","for getting","for mer","all e","all en","li ft","li cious","ck le","ro ve","ro sie","ro bert","mo l","mo t","mo tion","mo wing","wi v","et er","et ti","et ime","he m","he ctic","al ter","wh oops","un follow","ti ger","ti ming","ri a","ri an","ri des","ri pped","do e","do min","se qu","se af","se ven","am or","co at","co ps","ce lon","up coming","just ice","ni kk","ter nal","wor n","ne at","ne il","ne cess","can ad","was her","la ker","ur ge","ur ban","ma i","ma ins","ma iled","some 1","wee ee","pe p","ra w","ra ils","im p","end er","end less","de cor","de mons","like y","ba st","ant e","don nie","sh an","sh or","sh ire","ye lled","mor gan","na cho","po w","po ver","po lis","po wers","ag u","ag en","ag ne","if f","if ied","bo ts","bo dies","te h","ta kin","ta ils","ta cos","rom ance","ow l","ow ner","ong e","mu ah","fe at","sa il","fri ckin","off f","off line","com bo","ex tend","ex hibit","ex ternal","pl at","pl ate","home less","?? !","um bre","con ver","con su","con cre","con tem","con veni","twit t","sp it","sp onge","hope less","jo ey","ul ation","last ed","aa ah","king s","mi gr","lu ke","pre par","qu ilt","pro cra","pro lly","pro sper","would a","ph an","ph ilo","che aper","wn s","sor ta","twee ties","ous ly","mon d","mon y","mon ica","may b","man ual","pa city","who m","stu died","per man","head in","ac c","har m","bed room","try na","ber g","ber lin","ci ara","play off","br an","car to","app les","min ne","min im","mad re","mad die","bro dy","ans wers","om j","sup ris","sup ply","gg ers","gg age","list ic","pr it","pr inter","pr inted","cit ies","du al","sick ness","cool er","hur ray","inter national","vo c","vo lu","ste vie","da vis","mar ch","mar ia","mar gar","act ress","tra gic","zz es","dis k","dis like","dis gust","dis appeared","bir ming","war ren","sit ter","cra wl","ton es","roo ting","roo ts","cu e","cu red","cu bs","par ade","win 7","10 1","load ing","god s","boo th","light er","sk ill","sk ool","sk int","post pon","music monday","men u","photo shoot","eat in","their s","drink in","soooo oooo","plan et","hehe hehe","move s","rest ed","rest ri","comp an","bb ie","va ca","va lent","pri l","bar celon","ask a","mat ters","pu g","high light","char m","12 th","care less","chill ax","fly er","hmm mm","qui zzes","cre ate","cre ating","sen s","drive s","stead y","son ny","mp 3","pass ing","twi st","twi sted","vi bes","cli cked","lon er","rock y","rock in","ven tion","!!!!!!!! !!!!","favor ites","box ing","bri ef","eas ily","relax in","relax ation","200 0","spo il","pan era","choco lates","smi ley","season s","mas sa","arch ie","arch ule","num b","........ ...","nat alie","met all","pray er","ef fin","hahahaha hahahaha","leg end","surpr ises","pat ron","pat tern","order ing","fab ric","gut s","por ts","vac uum","ann ed","fu zz","rrrr rrrr","hold s","hea ther","hea ps","exper t","remind ing","dv ds","inv iting","loo sing","sus an","18 th","ky le","stick er","sum thin","jack man","experi en","experi ment","cas a","cas es","cas ino","flow er","ban quet","dig ging","fy ing","hm v","throw n","tan go","road s","shif ts","addic t","spam ming","eeeeeeee eee","random ly","hon ored","recommend ation","recommend ations","fest iv","inclu ded","bel ated","doll house","gri lled","ku dos","hav nt","ref use","hay fever","exha usting","bal ance","lov eeee","program me","brand on","cla ire","lead s","magic al","cap tain","cap ital","jer ry","soft ball","speak ers","prin ce","aun tie","kar ao","eff ed","rob in","cough ing","tis dale","stal king","stal ker","writ ers",")) )","coo per","coo lest","push ing","push ed","cab in","tag s","orig ins","idio ts","dev on","suff er","neighbor hood","jes se","igno red","noooo ooo","stri ke","queen s","???????? ????????","entertain ment","whoo p","ht ml","del hi","appro pri","oooooooooooooooo oooooooooooooooo","sele cted","employ ed","smooth ie","oper ation","reli ef","lif es","shee ts","commun ic","nur se","replace ment","medi um","cris is","sweat y","repe ated","artist s","regret ting","opp o","pine apple","rup t","sni ffle","vine gar","liver pool","muffin s","phys ically","mush room","teena gers","cul ture","gam ing","mur der","nv m","nv r","pha se","advent ures","broad band","cere al","rab bit","wan go","thir ty","rehear sal","regard ing","assu me","moz art","shu ffle","polit ics","snee zing","elect ri","ket ic","phe nomen","nightmare s","subscri be","transl ation","daf t","hic cups","mater ial","sti cks","adi um","profession al","relation ships","invest ig","veget arian","buff et","accompl ished","audi ence","tradition al","basket ball","particular ly","cate gory","crun ch","fts k","spr ink","indust ry","caro lina","blon de","compli ment","portu gal","neighbour s","wend y","toile t","stun ning","asha med","moder n","separ ate","immedi ately","baker y","shann on","finan cial","concentr ate","kore an","unfortunat ly","milksha ke","practic ally","motiv ated","sne ak","inspe ction","inju red","laught er","expi red","presid ent","achie ve","famili ar","awk ward","yogur t","tumbl r","cinnam on","devast ated","intention ally","recess ion","reven ge","softw are","seaf ood","necess ary","nacho s","umbre lla","procra st","philo soph","birming ham","postpon ed","barcelon a","archule ta","karao ke","' )",") !","* .","* ~","/ \\","0 1","3 4","3 g","3 word","3 000","4 4","6 6","7 1","7 7","8 5","8 6","9 7","9 th","9 00","; (","; ;","< --","? ,","@ -)","_ 1","_ p","_ er","_ ch","_ of","_ li","_ jo","_ wo","_ mc","_ uk","_ 19","_ supernatural","_ skies","a j","a ay","a mo","a wa","a ster","a men","a ire","a pril","b is","b ry","b wa","b list","b oooooo","c ld","c ba","c ss","c art","c hard","c ds","c ult","c ription","d l","d w","d as","d ere","d ion","d ah","d ough","d red","d sl","d ms","d ull","d ooo","d ding","d itch","e th","e go","e lle","f is","f fe","f ie","f ang","f lip","g li","g ab","g us","g night","g ate","g ent","g oooooooo","g ahh","g ooooo","g url","g mt","h il","h ooo","h int","h ence","h ana","i q","i to","i do","i touch","j s","j ar","j as","j ill","j ah","j ade","k t","k on","k ry","k ah","k il","k ard","k ath","l 8","l ted","l ooooo","l atte","m and","m our","m ph","m raz","n 1","n ina","n ano","o i","o ou","o ct","o tic","o logy","o lym","p b","p and","p li","p us","p ile","p lot","p ended","q i","q l","q ht","r b","r t","r ors","s ic","s had","s win","s lap","s nick","s noring","t c","t g","t ank","u a","u red","w itch","y m","y t","y cle","z ie","z ard","th s","th aa","th ouse","th reat","in it","in te","in ts","in ation","in vent","in form","in doors","in dex","in visible","an tha","er m","ou red","on ee","re nd","re qu","re late","re pla","re moved","re mix","re install","re schedule","re ference","re union","it ute","or ary","st ro","st am","st able","st ances","ll o","me ta","ha aa","ee k","ee z","oo c","oo p","ve y","ve nd","ve ggie","no one","no ld","no la","and re","and ra","le op","le cture","ar gu","ar io","ed own","ed die","ed ition","en na","en ger","en vir","en ix","so a","so x","so y","so ak","so ap","ch il","day yyy","be low","be lle","be cuz","be lt","as es","as ian","es ca","ho pp","ho ped","lo lol","lo gi","lo bby","lo gin","lo gging","lo bster","!! )","ad ing","ad em","ad ap","ad van","for mat","all ll","all lll","li k","li ll","li qu","li ps","ck les","ck eez","ut z","ut ah","ro s","ro it","ro blu","ro ses","mo an","mo sh","mo lly","he ater","he yyy","al t","al ing","al ge","al aska","wh t","wh in","wh ooo","un like","un expected","ti more","ri g","ri can","ri dge","ke ith","ke llie","we al","we igh","out s","do ggy","ther s","ther ine","ly k","se an","se ction","se wing","am po","am ster","am bi","id es","co incid","ter ry","ter ms","wor m","ne uro","not ting","la bor","la cking","la ud","la urie","ab a","ab by","ur self","ma li","ma ps","ma car","ma ker","ma ui","good ies","pe er","pe as","ra ck","ra ise","ra ises","ry l","work shop","im pro","im prove","im patient","us day","ic y","ic ar","ic ons","de z","de cl","de light","de tox","got cha","su ic","ill e","don uts","sh y","sh ite","sh ield","na e","na pping","po ke","po sh","po tle","po ker","see e","ag g","ag an","ag er","ag ing","bo i","bo m","bo ld","bo lt","haha a","iss a","ta ught","ta sty","any 1","tw ent","**** '","**** ..","miss y","back round","back yard","ca pacity",".... !","new born","ie m","sa c","sa cra","sa fter","fri cken","wa i","wa x","wa aaaay","oh hhhh","com b","gu in","gu ild","ex cl","ex plan","ex ited","ers on","nd rome","!!! ...","pl ee","home s","ent ation","ent ina","con s","con tain","con cept","sp here","ge m","jo se","jo king","ul ts","twitter ed","twitter ers","twitter world","every ones","her self","sl ammed","wish ed","lu cas","lu ggage","sad den","pre cious","qu a","qu ad","qu ali","pro po","ph on","ind ie","ind ul","sor ting","gr u","gr ant","gr umble","hh rs","mon tre","sun set","ble ach","may er","af fect","over time","over come","man s","man ly","show ers","bu gging","bu ilt","di an","di to","di gest","rea ched","per ry","per cent","ac ct","der by","down side","ber ra","ster n","play list","yes ss","yes ssss","hi ber","hi ps","ile y","ass ing","car ing","car ni","car rie","tu es","tu tori","gl ut","gl oom","bab yy","gir lie","lit ter","ms on","ms gs","best friend","ree l","ear n","ear phones","ga ther","ga wd","om gosh","fi red","fi ance","call in","gg as","list ing","pr ise","sc roll","tion s","fore cast","hu b","hu gged","cou p","cou ra","cou rage","vo lley","tri ple","tri cky","da ws","mar c","brea st","ya ay","ser ve","side walk","side kick","eeee ep","dis c","dis coura","clo thing","war ped","blo wn","blo gger","ted dy","hard drive","cra cked","cra cking","sha un","fam i","roo mies","kid d","bl oo","bl iss","amazing ly","win s","10 am","sound ed","tor ture","tre s","tre nt","tre ats","tr ampo","je an","je lly","des ig","des ire","des perate","boo z","boo ze","light ning","vis a","ja cked","birth days","swee the","swee ty","swee test","ank y","ten ance","sk l","sk ir","hun gover","hun dred","men to","pho enix","em ma","bea 09","cho se","cho ir","might y","cor por","cr an","cr it","cr ab","cr ane","free zer","bum ps","bum ped","mess y","mess ing","mess enger","cold s","super man","super star","wal ks","sm ash","fr on","clean er","sur f","sur vi","plan es","land ed","pain s","add ition","dream bears","ju z","cy ber","bb ies","xo x","chi p","chi potle","pri ma","pri ze","sy ndrome","bar ack","person ality","mer ch","mat ure","mat rix","pu ke","gra ve","gra pe","gra pes","gra vity","gra pher","ahhh hhhh","ahhh hhhhh","vers ions","yum m","care ful","chill en","ak o","cook er","lin col","cur ly","cur ry","cur ren","fall s","dan e","lap tops","pass ion","twi iter","vi et","ana tomy","view ing","rock star","dra ft","cell phone","den ny","den mark","den ial","mac cy","dam m","dam ned","close st","perfect ly","flu ffy","burn s","sty les","15 th","fair ly","bri gh","cal or","itch y","sol ution","sim ps","str ate","spo iled","shower ed","ko i","gradu ates","course work","dro pping","gas p","enter ing","enter prise","web cast","cent s","dang it","ali gn","conf id","xxxx xx","pizz as","mood s","ben ef","tou rist","absol ut","roll er","album s","teach ers","green ville",",, ,,","ki cks","pat io","pat rick","kick in","sal on","sal ary","sal vation","tee hee","hind i","sam antha","rrrr rrr","kn itting","bas ic","produ ce","dv r","disappo int","xoxo x","celebr ated","fit ness","scar ing","arri ving","small er","ist s","host ing","host ed","host age","heal ing","sus pended","mode m","dire ction","dire ctions","dire ctor","dire ctory","stick ing","tire s","val ue","sum 1","16 7","16 th","wall paper","resp ons","cas ion","hee hee","pur chase","dies el","bre ed","tech nic","brow sing","flight s","event ful","dig g","gun a","ire land","throw ing","nick y","chan ces","voice mail","cri me","ssss ss",":' )","comm and","recommend ed","det roit","oc cup","oc casion","mel ting","suc ces","vol ution","deser ves","bottle s",":- /","suggest ion","mart ini","vic tory","insp ire","main tenance","shi pped","bal timore","cru el","cru ising","kay la","lov eee","spell ed","atta cking","neck lace","contin ues","knee s","austra lian","speak er","lam bert","iron ing","poin ting","prin ting","tooth ache","ston es","scr am","gener ally","base ment","pee k","state ment","las er","acti vity","bru ce","bru ised","hugh es","ron ic","za ck","col um","clear ly","zzzz zzzz","fla v","wha ck","dev il","babys it","price less","miser ably","oce ans","depend ent","exc ite","euro vision","reco very","temp ted","temp orary","pres ence","3333 3","washing ton","mam ma","sla ve","itor s","brad ie","appro aching","respon ding","27 th","gro ve","jum ped","obs ession","rout ine","ret ro","regi str","research ing","stru ggling","plant ed","mista kes","ffff ffff","tattoo s","48 hours","tun ed","asy lum","lif etime","shee t","shee sh","steph en","frank ie","lun a","indi vid","cris ps","gain ed","forum s","champ ion","champ agne","pj s","sni ff","sour ce","hack er","mos qui","terri bly","phys ics","accep ting","fran cisco","teena ger","attemp ts","alo ha","caf fe","guest s","confir mation","gran ny","cere mony","cig are","refresh ing","bac ter","complain ing","iiiiiiii iiiiiiii","fif teen","spl it","arg entina","wid th","docu ments","pol ish","explo de","bic ycle","fal se","pout ing","attra ctive","pear l","cale nd","function ing","publ ish","humid ity","relation ship","fas cin","goooo ood","pff t","sr ry","insom ni","insom nia","asse mb","upgrad ed","upgrad es","gree ce","mari ah","multi ple","afri ca","h1 n1","pum ped","yaa ay","thous ands","resc ue","stan ley","veron ica","cowork er","spac es","dip lo","bitter sweet","prior ity","strang ers","britt any","invit ation","suspe ct","distur bed","_12 7","dess ert","lind a"]}}